{"[EOS]": 0, "[BOS]": 1, "\n": 2, "\t": 3, " ": 4, "[PAD]": 5, "[unused1]": 6, "[unused2]": 7, "[unused3]": 8, "[unused4]": 9, "[unused5]": 10, "[unused6]": 11, "[unused7]": 12, "[unused8]": 13, "[unused9]": 14, "[unused10]": 15, "[unused11]": 16, "[unused12]": 17, "[unused13]": 18, "[unused14]": 19, "[unused15]": 20, "[unused16]": 21, "[unused17]": 22, "[unused18]": 23, "[unused19]": 24, "[unused20]": 25, "[unused21]": 26, "[unused22]": 27, "[unused23]": 28, "[unused24]": 29, "[unused25]": 30, "[unused26]": 31, "[unused27]": 32, "[unused28]": 33, "[unused29]": 34, "[unused30]": 35, "[unused31]": 36, "[unused32]": 37, "[unused33]": 38, "[unused34]": 39, "[unused35]": 40, "[unused36]": 41, "[unused37]": 42, "[unused38]": 43, "[unused39]": 44, "[unused40]": 45, "[unused41]": 46, "[unused42]": 47, "[unused43]": 48, "[unused44]": 49, "[unused45]": 50, "[unused46]": 51, "[unused47]": 52, "[unused48]": 53, "[unused49]": 54, "[unused50]": 55, "[unused51]": 56, "[unused52]": 57, "[unused53]": 58, "[unused54]": 59, "[unused55]": 60, "[unused56]": 61, "[unused57]": 62, "[unused58]": 63, "[unused59]": 64, "[unused60]": 65, "[unused61]": 66, "[unused62]": 67, "[unused63]": 68, "[unused64]": 69, "[unused65]": 70, "[unused66]": 71, "[unused67]": 72, "[unused68]": 73, "[unused69]": 74, "[unused70]": 75, "[unused71]": 76, "[unused72]": 77, "[unused73]": 78, "[unused74]": 79, "[unused75]": 80, "[unused76]": 81, "[unused77]": 82, "[unused78]": 83, "[unused79]": 84, "[unused80]": 85, "[unused81]": 86, "[unused82]": 87, "[unused83]": 88, "[unused84]": 89, "[unused85]": 90, "[unused86]": 91, "[unused87]": 92, "[unused88]": 93, "[unused89]": 94, "[unused90]": 95, "[unused91]": 96, "[unused92]": 97, "[unused93]": 98, "[unused94]": 99, "[unused95]": 100, "[unused96]": 101, "[unused97]": 102, "[unused98]": 103, "[unused99]": 104, "[UNK]": 105, "[CLS]": 106, "[SEP]": 107, "[MASK]": 108, "  ": 109, "    ": 110, "!": 111, "\"": 112, "#": 113, "$": 114, "%": 115, "&": 116, "'": 117, "(": 118, ")": 119, "*": 120, "+": 121, ",": 122, "-": 123, ".": 124, "/": 125, "0": 126, "1": 127, "2": 128, "3": 129, "4": 130, "5": 131, "6": 132, "7": 133, "8": 134, "9": 135, ":": 136, ";": 137, "<": 138, "=": 139, ">": 140, "?": 141, "@": 142, "A": 143, "B": 144, "C": 145, "D": 146, "E": 147, "F": 148, "G": 149, "H": 150, "I": 151, "J": 152, "K": 153, "L": 154, "M": 155, "N": 156, "O": 157, "P": 158, "Q": 159, "R": 160, "S": 161, "T": 162, "U": 163, "V": 164, "W": 165, "X": 166, "Y": 167, "Z": 168, "[": 169, "\\": 170, "]": 171, "^": 172, "_": 173, "`": 174, "a": 175, "b": 176, "c": 177, "d": 178, "e": 179, "f": 180, "g": 181, "h": 182, "i": 183, "j": 184, "k": 185, "l": 186, "m": 187, "n": 188, "o": 189, "p": 190, "q": 191, "r": 192, "s": 193, "t": 194, "u": 195, "v": 196, "w": 197, "x": 198, "y": 199, "z": 200, "{": 201, "|": 202, "}": 203, "~": 204, "\u00a1": 205, "\u00a2": 206, "\u00a3": 207, "\u00a5": 208, "\u00a7": 209, "\u00a8": 210, "\u00a9": 211, "\u00aa": 212, "\u00ab": 213, "\u00ac": 214, "\u00ae": 215, "\u00b0": 216, "\u00b1": 217, "\u00b2": 218, "\u00b3": 219, "\u00b4": 220, "\u00b5": 221, "\u00b6": 222, "\u00b7": 223, "\u00b9": 224, "\u00ba": 225, "\u00bb": 226, "\u00bc": 227, "\u00bd": 228, "\u00be": 229, "\u00bf": 230, "\u00c0": 231, "\u00c1": 232, "\u00c2": 233, "\u00c4": 234, "\u00c5": 235, "\u00c6": 236, "\u00c7": 237, "\u00c8": 238, "\u00c9": 239, "\u00cd": 240, "\u00ce": 241, "\u00d1": 242, "\u00d3": 243, "\u00d6": 244, "\u00d7": 245, "\u00d8": 246, "\u00da": 247, "\u00dc": 248, "\u00de": 249, "\u00df": 250, "\u00e0": 251, "\u00e1": 252, "\u00e2": 253, "\u00e3": 254, "\u00e4": 255, "\u00e5": 256, "\u00e6": 257, "\u00e7": 258, "\u00e8": 259, "\u00e9": 260, "\u00ea": 261, "\u00eb": 262, "\u00ec": 263, "\u00ed": 264, "\u00ee": 265, "\u00ef": 266, "\u00f0": 267, "\u00f1": 268, "\u00f2": 269, "\u00f3": 270, "\u00f4": 271, "\u00f5": 272, "\u00f6": 273, "\u00f7": 274, "\u00f8": 275, "\u00f9": 276, "\u00fa": 277, "\u00fb": 278, "\u00fc": 279, "\u00fd": 280, "\u00fe": 281, "\u00ff": 282, "\u0100": 283, "\u0101": 284, "\u0103": 285, "\u0105": 286, "\u0106": 287, "\u0107": 288, "\u010c": 289, "\u010d": 290, "\u010f": 291, "\u0110": 292, "\u0111": 293, "\u0113": 294, "\u0117": 295, "\u0119": 296, "\u011b": 297, "\u011f": 298, "\u0121": 299, "\u0126": 300, "\u0127": 301, "\u0129": 302, "\u012a": 303, "\u012b": 304, "\u0130": 305, "\u0131": 306, "\u013c": 307, "\u013d": 308, "\u013e": 309, "\u0141": 310, "\u0142": 311, "\u0144": 312, "\u0146": 313, "\u0148": 314, "\u014b": 315, "\u014c": 316, "\u014d": 317, "\u014f": 318, "\u0151": 319, "\u0152": 320, "\u0153": 321, "\u0159": 322, "\u015a": 323, "\u015b": 324, "\u015e": 325, "\u015f": 326, "\u0160": 327, "\u0161": 328, "\u0162": 329, "\u0163": 330, "\u0165": 331, "\u0169": 332, "\u016b": 333, "\u016d": 334, "\u016f": 335, "\u0171": 336, "\u0173": 337, "\u0175": 338, "\u0177": 339, "\u017a": 340, "\u017b": 341, "\u017c": 342, "\u017d": 343, "\u017e": 344, "\u018f": 345, "\u0192": 346, "\u01a1": 347, "\u01b0": 348, "\u01ce": 349, "\u01d0": 350, "\u01d2": 351, "\u01d4": 352, "\u01eb": 353, "\u0218": 354, "\u0219": 355, "\u021a": 356, "\u021b": 357, "\u0250": 358, "\u0251": 359, "\u0254": 360, "\u0255": 361, "\u0259": 362, "\u025b": 363, "\u0261": 364, "\u0263": 365, "\u0268": 366, "\u026a": 367, "\u0272": 368, "\u027e": 369, "\u0280": 370, "\u0281": 371, "\u0282": 372, "\u0283": 373, "\u028a": 374, "\u028b": 375, "\u028c": 376, "\u0290": 377, "\u0291": 378, "\u0292": 379, "\u0294": 380, "\u02b0": 381, "\u02b2": 382, "\u02b3": 383, "\u02b7": 384, "\u02bb": 385, "\u02bc": 386, "\u02be": 387, "\u02bf": 388, "\u02c8": 389, "\u02d0": 390, "\u02e1": 391, "\u02e2": 392, "\u02e3": 393, "\u0301": 394, "\u0303": 395, "\u030d": 396, "\u032f": 397, "\u0361": 398, "\u0391": 399, "\u0392": 400, "\u0393": 401, "\u0394": 402, "\u0395": 403, "\u0397": 404, "\u0398": 405, "\u0399": 406, "\u039a": 407, "\u039b": 408, "\u039c": 409, "\u039d": 410, "\u039f": 411, "\u03a0": 412, "\u03a3": 413, "\u03a4": 414, "\u03a6": 415, "\u03a7": 416, "\u03a8": 417, "\u03a9": 418, "\u03ac": 419, "\u03ad": 420, "\u03ae": 421, "\u03af": 422, "\u03b1": 423, "\u03b2": 424, "\u03b3": 425, "\u03b4": 426, "\u03b5": 427, "\u03b6": 428, "\u03b7": 429, "\u03b8": 430, "\u03b9": 431, "\u03ba": 432, "\u03bb": 433, "\u03bc": 434, "\u03bd": 435, "\u03be": 436, "\u03bf": 437, "\u03c0": 438, "\u03c1": 439, "\u03c2": 440, "\u03c3": 441, "\u03c4": 442, "\u03c5": 443, "\u03c6": 444, "\u03c7": 445, "\u03c8": 446, "\u03c9": 447, "\u03cc": 448, "\u03cd": 449, "\u03ce": 450, "\u0406": 451, "\u0408": 452, "\u0410": 453, "\u0411": 454, "\u0412": 455, "\u0413": 456, "\u0414": 457, "\u0415": 458, "\u0416": 459, "\u0417": 460, "\u0418": 461, "\u041a": 462, "\u041b": 463, "\u041c": 464, "\u041d": 465, "\u041e": 466, "\u041f": 467, "\u0420": 468, "\u0421": 469, "\u0422": 470, "\u0423": 471, "\u0424": 472, "\u0425": 473, "\u0426": 474, "\u0427": 475, "\u0428": 476, "\u042d": 477, "\u042e": 478, "\u042f": 479, "\u0430": 480, "\u0431": 481, "\u0432": 482, "\u0433": 483, "\u0434": 484, "\u0435": 485, "\u0436": 486, "\u0437": 487, "\u0438": 488, "\u0439": 489, "\u043a": 490, "\u043b": 491, "\u043c": 492, "\u043d": 493, "\u043e": 494, "\u043f": 495, "\u0440": 496, "\u0441": 497, "\u0442": 498, "\u0443": 499, "\u0444": 500, "\u0445": 501, "\u0446": 502, "\u0447": 503, "\u0448": 504, "\u0449": 505, "\u044a": 506, "\u044b": 507, "\u044c": 508, "\u044d": 509, "\u044e": 510, "\u044f": 511, "\u0451": 512, "\u0456": 513, "\u0457": 514, "\u0458": 515, "\u045a": 516, "\u045b": 517, "\u0531": 518, "\u0540": 519, "\u0561": 520, "\u0565": 521, "\u056b": 522, "\u056f": 523, "\u0574": 524, "\u0575": 525, "\u0576": 526, "\u0578": 527, "\u057d": 528, "\u057f": 529, "\u0580": 530, "\u0582": 531, "\u05b0": 532, "\u05b4": 533, "\u05b5": 534, "\u05b6": 535, "\u05b7": 536, "\u05b8": 537, "\u05b9": 538, "\u05bc": 539, "\u05d0": 540, "\u05d1": 541, "\u05d2": 542, "\u05d3": 543, "\u05d4": 544, "\u05d5": 545, "\u05d6": 546, "\u05d7": 547, "\u05d8": 548, "\u05d9": 549, "\u05db": 550, "\u05dc": 551, "\u05dd": 552, "\u05de": 553, "\u05df": 554, "\u05e0": 555, "\u05e1": 556, "\u05e2": 557, "\u05e4": 558, "\u05e6": 559, "\u05e7": 560, "\u05e8": 561, "\u05e9": 562, "\u05ea": 563, "\u060c": 564, "\u0621": 565, "\u0622": 566, "\u0623": 567, "\u0625": 568, "\u0626": 569, "\u0627": 570, "\u0628": 571, "\u0629": 572, "\u062a": 573, "\u062b": 574, "\u062c": 575, "\u062d": 576, "\u062e": 577, "\u062f": 578, "\u0630": 579, "\u0631": 580, "\u0632": 581, "\u0633": 582, "\u0634": 583, "\u0635": 584, "\u0636": 585, "\u0637": 586, "\u0638": 587, "\u0639": 588, "\u063a": 589, "\u0641": 590, "\u0642": 591, "\u0643": 592, "\u0644": 593, "\u0645": 594, "\u0646": 595, "\u0647": 596, "\u0648": 597, "\u0649": 598, "\u064a": 599, "\u064e": 600, "\u0650": 601, "\u0679": 602, "\u067e": 603, "\u0686": 604, "\u06a9": 605, "\u06af": 606, "\u06c1": 607, "\u06cc": 608, "\u06d2": 609, "\u0902": 610, "\u0906": 611, "\u0915": 612, "\u0917": 613, "\u091a": 614, "\u091c": 615, "\u0923": 616, "\u0924": 617, "\u0926": 618, "\u0927": 619, "\u0928": 620, "\u092a": 621, "\u092c": 622, "\u092d": 623, "\u092e": 624, "\u092f": 625, "\u0930": 626, "\u0932": 627, "\u0935": 628, "\u0936": 629, "\u0937": 630, "\u0938": 631, "\u0939": 632, "\u093e": 633, "\u093f": 634, "\u0940": 635, "\u0941": 636, "\u0947": 637, "\u094b": 638, "\u094d": 639, "\u0964": 640, "\u0965": 641, "\u0986": 642, "\u0987": 643, "\u098f": 644, "\u0993": 645, "\u0995": 646, "\u0996": 647, "\u0997": 648, "\u099a": 649, "\u099b": 650, "\u099c": 651, "\u099f": 652, "\u09a4": 653, "\u09a5": 654, "\u09a6": 655, "\u09a7": 656, "\u09a8": 657, "\u09aa": 658, "\u09ac": 659, "\u09ae": 660, "\u09af": 661, "\u09b0": 662, "\u09b2": 663, "\u09b6": 664, "\u09b8": 665, "\u09b9": 666, "\u09bc": 667, "\u09be": 668, "\u09bf": 669, "\u09c0": 670, "\u09c1": 671, "\u09c7": 672, "\u09cb": 673, "\u09cd": 674, "\u09df": 675, "\u0b95": 676, "\u0ba4": 677, "\u0baa": 678, "\u0bae": 679, "\u0baf": 680, "\u0bb0": 681, "\u0bb2": 682, "\u0bb5": 683, "\u0bbe": 684, "\u0bbf": 685, "\u0bc1": 686, "\u0bcd": 687, "\u0e23": 688, "\u0f0b": 689, "\u0f42": 690, "\u0f44": 691, "\u0f51": 692, "\u0f53": 693, "\u0f56": 694, "\u0f58": 695, "\u0f62": 696, "\u0f63": 697, "\u0f66": 698, "\u0f72": 699, "\u0f74": 700, "\u0f7a": 701, "\u0f7c": 702, "\u10d0": 703, "\u10d4": 704, "\u10d8": 705, "\u10da": 706, "\u10dc": 707, "\u10dd": 708, "\u10e0": 709, "\u10e1": 710, "\u1d2c": 711, "\u1d35": 712, "\u1d40": 713, "\u1d43": 714, "\u1d47": 715, "\u1d48": 716, "\u1d49": 717, "\u1d4d": 718, "\u1d4f": 719, "\u1d50": 720, "\u1d52": 721, "\u1d56": 722, "\u1d57": 723, "\u1d58": 724, "\u1d62": 725, "\u1d63": 726, "\u1d64": 727, "\u1d65": 728, "\u1d9c": 729, "\u1da0": 730, "\u1e0d": 731, "\u1e24": 732, "\u1e25": 733, "\u1e28": 734, "\u1e29": 735, "\u1e33": 736, "\u1e43": 737, "\u1e45": 738, "\u1e47": 739, "\u1e5b": 740, "\u1e63": 741, "\u1e6d": 742, "\u1ea1": 743, "\u1ea3": 744, "\u1ea5": 745, "\u1ea7": 746, "\u1ea9": 747, "\u1ead": 748, "\u1eaf": 749, "\u1ebf": 750, "\u1ec1": 751, "\u1ec3": 752, "\u1ec5": 753, "\u1ec7": 754, "\u1ecb": 755, "\u1ecd": 756, "\u1ed1": 757, "\u1ed3": 758, "\u1ed5": 759, "\u1ed9": 760, "\u1edb": 761, "\u1edd": 762, "\u1ee3": 763, "\u1ee5": 764, "\u1ee7": 765, "\u1ee9": 766, "\u1eeb": 767, "\u1eed": 768, "\u1eef": 769, "\u1ef1": 770, "\u1ef3": 771, "\u1ef9": 772, "\u1f00": 773, "\u1f10": 774, "\u1f41": 775, "\u1f50": 776, "\u1f70": 777, "\u1f76": 778, "\u1f78": 779, "\u1fc6": 780, "\u1fd6": 781, "\u1fe6": 782, "\u1ff6": 783, "\u2010": 784, "\u2011": 785, "\u2012": 786, "\u2013": 787, "\u2014": 788, "\u2015": 789, "\u2016": 790, "\u2018": 791, "\u2019": 792, "\u201a": 793, "\u201c": 794, "\u201d": 795, "\u201e": 796, "\u2020": 797, "\u2021": 798, "\u2022": 799, "\u2026": 800, "\u2030": 801, "\u2032": 802, "\u2033": 803, "\u2044": 804, "\u2070": 805, "\u2071": 806, "\u2074": 807, "\u2075": 808, "\u2076": 809, "\u2077": 810, "\u2078": 811, "\u2079": 812, "\u207a": 813, "\u207b": 814, "\u207f": 815, "\u2080": 816, "\u2081": 817, "\u2082": 818, "\u2083": 819, "\u2084": 820, "\u2085": 821, "\u2086": 822, "\u2087": 823, "\u2088": 824, "\u2089": 825, "\u208a": 826, "\u208d": 827, "\u208e": 828, "\u2090": 829, "\u2091": 830, "\u2092": 831, "\u2093": 832, "\u2095": 833, "\u2096": 834, "\u2098": 835, "\u2099": 836, "\u209a": 837, "\u209b": 838, "\u209c": 839, "\u20a4": 840, "\u20ac": 841, "\u20b1": 842, "\u20b9": 843, "\u2113": 844, "\u2116": 845, "\u211d": 846, "\u2153": 847, "\u2190": 848, "\u2191": 849, "\u2192": 850, "\u2194": 851, "\u21cc": 852, "\u21d2": 853, "\u2202": 854, "\u2208": 855, "\u2212": 856, "\u2217": 857, "\u2218": 858, "\u221a": 859, "\u221e": 860, "\u2227": 861, "\u2228": 862, "\u2229": 863, "\u222a": 864, "\u2248": 865, "\u2260": 866, "\u2261": 867, "\u2264": 868, "\u2265": 869, "\u2282": 870, "\u2286": 871, "\u2295": 872, "\u22c5": 873, "\u2500": 874, "\u2502": 875, "\u25a0": 876, "\u25cf": 877, "\u2605": 878, "\u2606": 879, "\u2609": 880, "\u2660": 881, "\u2663": 882, "\u2665": 883, "\u2666": 884, "\u266d": 885, "\u266f": 886, "\u27e8": 887, "\u27e9": 888, "\u2c7c": 889, "\u3001": 890, "\u3002": 891, "\u300a": 892, "\u300b": 893, "\u300c": 894, "\u300d": 895, "\u300e": 896, "\u300f": 897, "\u301c": 898, "\u3044": 899, "\u3046": 900, "\u3048": 901, "\u304a": 902, "\u304b": 903, "\u304d": 904, "\u304f": 905, "\u3051": 906, "\u3053": 907, "\u3055": 908, "\u3057": 909, "\u3059": 910, "\u305b": 911, "\u305d": 912, "\u305f": 913, "\u3061": 914, "\u3064": 915, "\u3066": 916, "\u3068": 917, "\u306a": 918, "\u306b": 919, "\u306e": 920, "\u306f": 921, "\u3072": 922, "\u307e": 923, "\u307f": 924, "\u3080": 925, "\u3081": 926, "\u3082": 927, "\u3084": 928, "\u3086": 929, "\u3088": 930, "\u3089": 931, "\u308a": 932, "\u308b": 933, "\u308c": 934, "\u3093": 935, "\u30a2": 936, "\u30a3": 937, "\u30a4": 938, "\u30a6": 939, "\u30a8": 940, "\u30aa": 941, "\u30ab": 942, "\u30ac": 943, "\u30ad": 944, "\u30af": 945, "\u30b0": 946, "\u30b3": 947, "\u30b5": 948, "\u30b7": 949, "\u30b8": 950, "\u30b9": 951, "\u30ba": 952, "\u30bf": 953, "\u30c0": 954, "\u30c3": 955, "\u30c6": 956, "\u30c7": 957, "\u30c8": 958, "\u30c9": 959, "\u30ca": 960, "\u30cb": 961, "\u30cf": 962, "\u30d0": 963, "\u30d1": 964, "\u30d5": 965, "\u30d6": 966, "\u30d7": 967, "\u30de": 968, "\u30df": 969, "\u30e0": 970, "\u30e3": 971, "\u30e5": 972, "\u30e9": 973, "\u30ea": 974, "\u30eb": 975, "\u30ec": 976, "\u30ed": 977, "\u30f3": 978, "\u30fb": 979, "\u30fc": 980, "\u4e00": 981, "\u4e09": 982, "\u4e0a": 983, "\u4e0b": 984, "\u4e2d": 985, "\u4e8b": 986, "\u4e8c": 987, "\u4e95": 988, "\u4eac": 989, "\u4eba": 990, "\u4ebb": 991, "\u4ec1": 992, "\u4f50": 993, "\u4f8d": 994, "\u5149": 995, "\u516c": 996, "\u529b": 997, "\u5317": 998, "\u5341": 999, "\u5357": 1000, "\u539f": 1001, "\u53e3": 1002, "\u53f2": 1003, "\u53f8": 1004, "\u5409": 1005, "\u540c": 1006, "\u548c": 1007, "\u56d7": 1008, "\u56fd": 1009, "\u570b": 1010, "\u571f": 1011, "\u57ce": 1012, "\u58eb": 1013, "\u5927": 1014, "\u5929": 1015, "\u592a": 1016, "\u592b": 1017, "\u5973": 1018, "\u5b50": 1019, "\u5b80": 1020, "\u5b89": 1021, "\u5bae": 1022, "\u5bbf": 1023, "\u5c0f": 1024, "\u5c1a": 1025, "\u5c71": 1026, "\u5cf6": 1027, "\u5ddd": 1028, "\u5dde": 1029, "\u5e73": 1030, "\u5e74": 1031, "\u5fc3": 1032, "\u611b": 1033, "\u6238": 1034, "\u6587": 1035, "\u65b0": 1036, "\u65b9": 1037, "\u65e5": 1038, "\u660e": 1039, "\u661f": 1040, "\u66f8": 1041, "\u6708": 1042, "\u6728": 1043, "\u672c": 1044, "\u674e": 1045, "\u6751": 1046, "\u6771": 1047, "\u677e": 1048, "\u6797": 1049, "\u6b63": 1050, "\u6b66": 1051, "\u6c0f": 1052, "\u6c34": 1053, "\u6c35": 1054, "\u6c5f": 1055, "\u6cb3": 1056, "\u6d77": 1057, "\u7248": 1058, "\u72ac": 1059, "\u738b": 1060, "\u751f": 1061, "\u7530": 1062, "\u767d": 1063, "\u7687": 1064, "\u7701": 1065, "\u771f": 1066, "\u77f3": 1067, "\u793e": 1068, "\u795e": 1069, "\u7af9": 1070, "\u7f8e": 1071, "\u7fa9": 1072, "\u82b1": 1073, "\u85e4": 1074, "\u897f": 1075, "\u8c37": 1076, "\u8eca": 1077, "\u8fb6": 1078, "\u9053": 1079, "\u90ce": 1080, "\u90e1": 1081, "\u90e8": 1082, "\u91ce": 1083, "\u91d1": 1084, "\u9577": 1085, "\u9580": 1086, "\u967d": 1087, "\u9752": 1088, "\u98df": 1089, "\u99ac": 1090, "\u9ad8": 1091, "\u9f8d": 1092, "\u9fb8": 1093, "\uc0ac": 1094, "\uc528": 1095, "\uc758": 1096, "\uc774": 1097, "\ud55c": 1098, "\ufb01": 1099, "\ufb02": 1100, "\uff01": 1101, "\uff08": 1102, "\uff09": 1103, "\uff0c": 1104, "\uff0d": 1105, "\uff0f": 1106, "\uff1a": 1107, "the": 1108, "of": 1109, "and": 1110, "to": 1111, "in": 1112, "was": 1113, "The": 1114, "is": 1115, "for": 1116, "as": 1117, "on": 1118, "with": 1119, "that": 1120, "##s": 1121, "his": 1122, "by": 1123, "he": 1124, "at": 1125, "from": 1126, "it": 1127, "her": 1128, "He": 1129, "had": 1130, "an": 1131, "were": 1132, "you": 1133, "be": 1134, "In": 1135, "she": 1136, "are": 1137, "but": 1138, "which": 1139, "It": 1140, "not": 1141, "or": 1142, "have": 1143, "my": 1144, "him": 1145, "one": 1146, "this": 1147, "me": 1148, "has": 1149, "also": 1150, "up": 1151, "their": 1152, "first": 1153, "out": 1154, "who": 1155, "been": 1156, "they": 1157, "She": 1158, "into": 1159, "all": 1160, "would": 1161, "its": 1162, "##ing": 1163, "time": 1164, "two": 1165, "##a": 1166, "##e": 1167, "said": 1168, "about": 1169, "when": 1170, "over": 1171, "more": 1172, "other": 1173, "can": 1174, "after": 1175, "back": 1176, "them": 1177, "then": 1178, "##ed": 1179, "there": 1180, "like": 1181, "so": 1182, "only": 1183, "##n": 1184, "could": 1185, "##d": 1186, "##i": 1187, "##y": 1188, "what": 1189, "no": 1190, "##o": 1191, "where": 1192, "This": 1193, "made": 1194, "than": 1195, "if": 1196, "You": 1197, "##ly": 1198, "through": 1199, "we": 1200, "before": 1201, "##r": 1202, "just": 1203, "some": 1204, "##er": 1205, "years": 1206, "do": 1207, "New": 1208, "##t": 1209, "down": 1210, "between": 1211, "new": 1212, "now": 1213, "will": 1214, "three": 1215, "most": 1216, "On": 1217, "around": 1218, "year": 1219, "used": 1220, "such": 1221, "being": 1222, "well": 1223, "during": 1224, "They": 1225, "know": 1226, "against": 1227, "under": 1228, "later": 1229, "did": 1230, "part": 1231, "known": 1232, "off": 1233, "while": 1234, "His": 1235, "re": 1236, "...": 1237, "##l": 1238, "people": 1239, "until": 1240, "way": 1241, "American": 1242, "didn": 1243, "University": 1244, "your": 1245, "both": 1246, "many": 1247, "get": 1248, "United": 1249, "became": 1250, "head": 1251, "There": 1252, "second": 1253, "As": 1254, "work": 1255, "any": 1256, "But": 1257, "still": 1258, "again": 1259, "born": 1260, "even": 1261, "eyes": 1262, "After": 1263, "including": 1264, "de": 1265, "took": 1266, "And": 1267, "long": 1268, "team": 1269, "season": 1270, "family": 1271, "see": 1272, "right": 1273, "same": 1274, "called": 1275, "name": 1276, "because": 1277, "film": 1278, "don": 1279, "10": 1280, "found": 1281, "much": 1282, "school": 1283, "##es": 1284, "going": 1285, "won": 1286, "place": 1287, "away": 1288, "We": 1289, "day": 1290, "left": 1291, "John": 1292, "000": 1293, "hand": 1294, "since": 1295, "World": 1296, "these": 1297, "how": 1298, "make": 1299, "number": 1300, "each": 1301, "life": 1302, "area": 1303, "man": 1304, "four": 1305, "go": 1306, "No": 1307, "here": 1308, "very": 1309, "National": 1310, "##m": 1311, "played": 1312, "released": 1313, "never": 1314, "began": 1315, "States": 1316, "album": 1317, "home": 1318, "last": 1319, "too": 1320, "held": 1321, "several": 1322, "May": 1323, "own": 1324, "##on": 1325, "take": 1326, "end": 1327, "School": 1328, "##h": 1329, "ll": 1330, "series": 1331, "What": 1332, "want": 1333, "use": 1334, "another": 1335, "city": 1336, "When": 1337, "2010": 1338, "side": 1339, "At": 1340, "may": 1341, "That": 1342, "came": 1343, "face": 1344, "June": 1345, "think": 1346, "game": 1347, "those": 1348, "high": 1349, "March": 1350, "early": 1351, "September": 1352, "##al": 1353, "2011": 1354, "looked": 1355, "July": 1356, "state": 1357, "small": 1358, "thought": 1359, "went": 1360, "January": 1361, "October": 1362, "##u": 1363, "based": 1364, "August": 1365, "##us": 1366, "world": 1367, "good": 1368, "April": 1369, "York": 1370, "us": 1371, "12": 1372, "2012": 1373, "2008": 1374, "For": 1375, "2009": 1376, "group": 1377, "along": 1378, "few": 1379, "South": 1380, "little": 1381, "##k": 1382, "following": 1383, "November": 1384, "something": 1385, "2013": 1386, "December": 1387, "set": 1388, "2007": 1389, "old": 1390, "2006": 1391, "2014": 1392, "located": 1393, "##an": 1394, "music": 1395, "County": 1396, "City": 1397, "former": 1398, "##in": 1399, "room": 1400, "ve": 1401, "next": 1402, "All": 1403, "##man": 1404, "got": 1405, "father": 1406, "house": 1407, "##g": 1408, "body": 1409, "15": 1410, "20": 1411, "18": 1412, "started": 1413, "If": 1414, "2015": 1415, "town": 1416, "our": 1417, "line": 1418, "War": 1419, "large": 1420, "population": 1421, "named": 1422, "British": 1423, "company": 1424, "member": 1425, "five": 1426, "My": 1427, "single": 1428, "##en": 1429, "age": 1430, "State": 1431, "moved": 1432, "February": 1433, "11": 1434, "Her": 1435, "should": 1436, "century": 1437, "government": 1438, "built": 1439, "come": 1440, "best": 1441, "show": 1442, "However": 1443, "within": 1444, "look": 1445, "men": 1446, "door": 1447, "without": 1448, "need": 1449, "wasn": 1450, "2016": 1451, "water": 1452, "One": 1453, "system": 1454, "knew": 1455, "every": 1456, "died": 1457, "League": 1458, "turned": 1459, "asked": 1460, "North": 1461, "St": 1462, "wanted": 1463, "building": 1464, "received": 1465, "song": 1466, "served": 1467, "though": 1468, "felt": 1469, "##ia": 1470, "station": 1471, "band": 1472, "##ers": 1473, "local": 1474, "public": 1475, "himself": 1476, "different": 1477, "death": 1478, "say": 1479, "##1": 1480, "30": 1481, "##2": 1482, "2005": 1483, "16": 1484, "night": 1485, "behind": 1486, "children": 1487, "English": 1488, "members": 1489, "near": 1490, "saw": 1491, "together": 1492, "son": 1493, "14": 1494, "voice": 1495, "village": 1496, "13": 1497, "hands": 1498, "help": 1499, "##3": 1500, "due": 1501, "French": 1502, "London": 1503, "top": 1504, "told": 1505, "open": 1506, "published": 1507, "third": 1508, "2017": 1509, "play": 1510, "across": 1511, "During": 1512, "put": 1513, "final": 1514, "often": 1515, "include": 1516, "25": 1517, "##le": 1518, "main": 1519, "having": 1520, "2004": 1521, "once": 1522, "ever": 1523, "let": 1524, "book": 1525, "led": 1526, "gave": 1527, "late": 1528, "front": 1529, "find": 1530, "club": 1531, "##4": 1532, "German": 1533, "included": 1534, "species": 1535, "College": 1536, "form": 1537, "opened": 1538, "mother": 1539, "women": 1540, "enough": 1541, "West": 1542, "must": 1543, "2000": 1544, "power": 1545, "really": 1546, "17": 1547, "making": 1548, "half": 1549, "##6": 1550, "order": 1551, "might": 1552, "##is": 1553, "given": 1554, "million": 1555, "times": 1556, "days": 1557, "point": 1558, "full": 1559, "service": 1560, "With": 1561, "km": 1562, "major": 1563, "##7": 1564, "original": 1565, "become": 1566, "seen": 1567, "II": 1568, "north": 1569, "six": 1570, "##te": 1571, "love": 1572, "##0": 1573, "national": 1574, "International": 1575, "##5": 1576, "24": 1577, "So": 1578, "District": 1579, "lost": 1580, "run": 1581, "couldn": 1582, "career": 1583, "always": 1584, "##9": 1585, "2003": 1586, "##th": 1587, "country": 1588, "##z": 1589, "House": 1590, "air": 1591, "tell": 1592, "south": 1593, "worked": 1594, "woman": 1595, "player": 1596, "##A": 1597, "almost": 1598, "war": 1599, "River": 1600, "##ic": 1601, "married": 1602, "continued": 1603, "Then": 1604, "James": 1605, "close": 1606, "black": 1607, "short": 1608, "##8": 1609, "##na": 1610, "using": 1611, "history": 1612, "returned": 1613, "light": 1614, "car": 1615, "##ra": 1616, "sure": 1617, "William": 1618, "things": 1619, "General": 1620, "##ry": 1621, "2002": 1622, "better": 1623, "support": 1624, "100": 1625, "among": 1626, "From": 1627, "feet": 1628, "King": 1629, "anything": 1630, "21": 1631, "19": 1632, "established": 1633, "district": 1634, "2001": 1635, "feel": 1636, "great": 1637, "##ton": 1638, "level": 1639, "Cup": 1640, "These": 1641, "written": 1642, "games": 1643, "others": 1644, "already": 1645, "title": 1646, "story": 1647, "##p": 1648, "law": 1649, "thing": 1650, "US": 1651, "record": 1652, "role": 1653, "however": 1654, "By": 1655, "students": 1656, "England": 1657, "white": 1658, "control": 1659, "least": 1660, "inside": 1661, "land": 1662, "##C": 1663, "22": 1664, "give": 1665, "community": 1666, "hard": 1667, "##ie": 1668, "non": 1669, "##c": 1670, "produced": 1671, "George": 1672, "round": 1673, "period": 1674, "Park": 1675, "business": 1676, "various": 1677, "##ne": 1678, "does": 1679, "present": 1680, "wife": 1681, "far": 1682, "taken": 1683, "per": 1684, "reached": 1685, "David": 1686, "able": 1687, "version": 1688, "working": 1689, "young": 1690, "live": 1691, "created": 1692, "joined": 1693, "East": 1694, "living": 1695, "appeared": 1696, "case": 1697, "High": 1698, "done": 1699, "23": 1700, "important": 1701, "President": 1702, "Award": 1703, "France": 1704, "position": 1705, "office": 1706, "looking": 1707, "total": 1708, "general": 1709, "class": 1710, "To": 1711, "production": 1712, "##S": 1713, "football": 1714, "party": 1715, "brother": 1716, "keep": 1717, "mind": 1718, "free": 1719, "Street": 1720, "hair": 1721, "announced": 1722, "development": 1723, "either": 1724, "nothing": 1725, "moment": 1726, "Church": 1727, "followed": 1728, "wrote": 1729, "why": 1730, "India": 1731, "San": 1732, "election": 1733, "1999": 1734, "lead": 1735, "How": 1736, "##ch": 1737, "##rs": 1738, "words": 1739, "European": 1740, "course": 1741, "considered": 1742, "America": 1743, "arms": 1744, "Army": 1745, "political": 1746, "##la": 1747, "28": 1748, "26": 1749, "west": 1750, "east": 1751, "ground": 1752, "further": 1753, "church": 1754, "less": 1755, "site": 1756, "First": 1757, "Not": 1758, "Australia": 1759, "toward": 1760, "California": 1761, "##ness": 1762, "described": 1763, "works": 1764, "An": 1765, "Council": 1766, "heart": 1767, "past": 1768, "military": 1769, "27": 1770, "##or": 1771, "heard": 1772, "field": 1773, "human": 1774, "soon": 1775, "founded": 1776, "1998": 1777, "playing": 1778, "trying": 1779, "##x": 1780, "##ist": 1781, "##ta": 1782, "television": 1783, "mouth": 1784, "although": 1785, "taking": 1786, "win": 1787, "fire": 1788, "Division": 1789, "##ity": 1790, "Party": 1791, "Royal": 1792, "program": 1793, "Some": 1794, "Don": 1795, "Association": 1796, "According": 1797, "tried": 1798, "TV": 1799, "Paul": 1800, "outside": 1801, "daughter": 1802, "Best": 1803, "While": 1804, "someone": 1805, "match": 1806, "recorded": 1807, "Canada": 1808, "closed": 1809, "region": 1810, "Air": 1811, "above": 1812, "months": 1813, "elected": 1814, "##da": 1815, "##ian": 1816, "road": 1817, "##ar": 1818, "brought": 1819, "move": 1820, "1997": 1821, "leave": 1822, "##um": 1823, "Thomas": 1824, "1996": 1825, "am": 1826, "low": 1827, "Robert": 1828, "formed": 1829, "person": 1830, "services": 1831, "points": 1832, "Mr": 1833, "miles": 1834, "##b": 1835, "stop": 1836, "rest": 1837, "doing": 1838, "needed": 1839, "international": 1840, "release": 1841, "floor": 1842, "start": 1843, "sound": 1844, "call": 1845, "killed": 1846, "real": 1847, "dark": 1848, "research": 1849, "finished": 1850, "language": 1851, "Michael": 1852, "professional": 1853, "change": 1854, "sent": 1855, "50": 1856, "upon": 1857, "29": 1858, "track": 1859, "hit": 1860, "event": 1861, "2018": 1862, "term": 1863, "example": 1864, "Germany": 1865, "similar": 1866, "return": 1867, "##ism": 1868, "fact": 1869, "pulled": 1870, "stood": 1871, "says": 1872, "ran": 1873, "information": 1874, "yet": 1875, "result": 1876, "developed": 1877, "girl": 1878, "##re": 1879, "God": 1880, "1995": 1881, "areas": 1882, "signed": 1883, "decided": 1884, "##ment": 1885, "Company": 1886, "seemed": 1887, "##el": 1888, "co": 1889, "turn": 1890, "race": 1891, "common": 1892, "video": 1893, "Charles": 1894, "Indian": 1895, "##ation": 1896, "blood": 1897, "art": 1898, "red": 1899, "##able": 1900, "added": 1901, "rather": 1902, "1994": 1903, "met": 1904, "director": 1905, "addition": 1906, "design": 1907, "average": 1908, "minutes": 1909, "##ies": 1910, "##ted": 1911, "available": 1912, "bed": 1913, "coming": 1914, "friend": 1915, "idea": 1916, "kind": 1917, "Union": 1918, "Road": 1919, "remained": 1920, "##ting": 1921, "everything": 1922, "##ma": 1923, "running": 1924, "care": 1925, "finally": 1926, "Chinese": 1927, "appointed": 1928, "1992": 1929, "Australian": 1930, "##ley": 1931, "popular": 1932, "mean": 1933, "teams": 1934, "probably": 1935, "##land": 1936, "usually": 1937, "project": 1938, "social": 1939, "Championship": 1940, "possible": 1941, "word": 1942, "Russian": 1943, "instead": 1944, "mi": 1945, "herself": 1946, "##T": 1947, "Peter": 1948, "Hall": 1949, "Center": 1950, "seat": 1951, "style": 1952, "money": 1953, "1993": 1954, "else": 1955, "Department": 1956, "table": 1957, "Music": 1958, "current": 1959, "31": 1960, "features": 1961, "special": 1962, "events": 1963, "character": 1964, "Two": 1965, "square": 1966, "sold": 1967, "debut": 1968, "##v": 1969, "process": 1970, "Although": 1971, "Since": 1972, "##ka": 1973, "40": 1974, "Central": 1975, "currently": 1976, "education": 1977, "placed": 1978, "lot": 1979, "China": 1980, "quickly": 1981, "forward": 1982, "seven": 1983, "##ling": 1984, "Europe": 1985, "arm": 1986, "performed": 1987, "Japanese": 1988, "1991": 1989, "Henry": 1990, "Now": 1991, "Dr": 1992, "##ion": 1993, "week": 1994, "Group": 1995, "myself": 1996, "big": 1997, "UK": 1998, "Washington": 1999, "ten": 2000, "deep": 2001, "1990": 2002, "Club": 2003, "Japan": 2004, "space": 2005, "La": 2006, "directed": 2007, "smile": 2008, "episode": 2009, "hours": 2010, "whole": 2011, "##de": 2012, "##less": 2013, "Why": 2014, "wouldn": 2015, "designed": 2016, "strong": 2017, "training": 2018, "changed": 2019, "Society": 2020, "stage": 2021, "involved": 2022, "hadn": 2023, "towards": 2024, "leading": 2025, "police": 2026, "eight": 2027, "kept": 2028, "Institute": 2029, "study": 2030, "largest": 2031, "child": 2032, "eventually": 2033, "private": 2034, "modern": 2035, "Court": 2036, "throughout": 2037, "getting": 2038, "originally": 2039, "attack": 2040, "##E": 2041, "talk": 2042, "Great": 2043, "longer": 2044, "songs": 2045, "alone": 2046, "##ine": 2047, "wide": 2048, "dead": 2049, "walked": 2050, "shot": 2051, "##ri": 2052, "Oh": 2053, "force": 2054, "##st": 2055, "Art": 2056, "today": 2057, "friends": 2058, "Island": 2059, "Richard": 2060, "1989": 2061, "center": 2062, "construction": 2063, "believe": 2064, "size": 2065, "White": 2066, "ship": 2067, "completed": 2068, "##B": 2069, "gone": 2070, "Just": 2071, "rock": 2072, "sat": 2073, "##R": 2074, "radio": 2075, "below": 2076, "entire": 2077, "families": 2078, "league": 2079, "includes": 2080, "type": 2081, "lived": 2082, "official": 2083, "range": 2084, "hold": 2085, "featured": 2086, "Most": 2087, "##ter": 2088, "president": 2089, "passed": 2090, "means": 2091, "##f": 2092, "forces": 2093, "lips": 2094, "Mary": 2095, "Do": 2096, "guitar": 2097, "##ce": 2098, "food": 2099, "wall": 2100, "Of": 2101, "spent": 2102, "Its": 2103, "performance": 2104, "hear": 2105, "##P": 2106, "Western": 2107, "reported": 2108, "sister": 2109, "##et": 2110, "morning": 2111, "##M": 2112, "especially": 2113, "##ive": 2114, "Minister": 2115, "itself": 2116, "post": 2117, "bit": 2118, "groups": 2119, "1988": 2120, "##tion": 2121, "Black": 2122, "##ng": 2123, "Well": 2124, "raised": 2125, "sometimes": 2126, "Canadian": 2127, "Paris": 2128, "Spanish": 2129, "replaced": 2130, "schools": 2131, "Academy": 2132, "leaving": 2133, "central": 2134, "female": 2135, "Christian": 2136, "Jack": 2137, "whose": 2138, "college": 2139, "onto": 2140, "provided": 2141, "##D": 2142, "##ville": 2143, "players": 2144, "actually": 2145, "stopped": 2146, "##son": 2147, "Museum": 2148, "doesn": 2149, "##ts": 2150, "books": 2151, "fight": 2152, "allowed": 2153, "##ur": 2154, "beginning": 2155, "Records": 2156, "awarded": 2157, "parents": 2158, "coach": 2159, "##os": 2160, "Red": 2161, "saying": 2162, "##ck": 2163, "Smith": 2164, "Yes": 2165, "Lake": 2166, "##L": 2167, "aircraft": 2168, "1987": 2169, "##ble": 2170, "previous": 2171, "ft": 2172, "action": 2173, "Italian": 2174, "African": 2175, "happened": 2176, "vocals": 2177, "Act": 2178, "future": 2179, "court": 2180, "##ge": 2181, "1986": 2182, "degree": 2183, "phone": 2184, "##ro": 2185, "Is": 2186, "countries": 2187, "winning": 2188, "breath": 2189, "Love": 2190, "river": 2191, "matter": 2192, "Lord": 2193, "Other": 2194, "list": 2195, "self": 2196, "parts": 2197, "##ate": 2198, "provide": 2199, "cut": 2200, "shows": 2201, "plan": 2202, "1st": 2203, "interest": 2204, "##ized": 2205, "Africa": 2206, "stated": 2207, "Sir": 2208, "fell": 2209, "owned": 2210, "earlier": 2211, "ended": 2212, "competition": 2213, "attention": 2214, "1985": 2215, "lower": 2216, "nearly": 2217, "bad": 2218, "older": 2219, "stay": 2220, "Saint": 2221, "##se": 2222, "certain": 2223, "1984": 2224, "fingers": 2225, "blue": 2226, "try": 2227, "fourth": 2228, "Grand": 2229, "##as": 2230, "king": 2231, "##nt": 2232, "makes": 2233, "chest": 2234, "movement": 2235, "states": 2236, "moving": 2237, "data": 2238, "introduced": 2239, "model": 2240, "date": 2241, "section": 2242, "Los": 2243, "deal": 2244, "##I": 2245, "skin": 2246, "entered": 2247, "middle": 2248, "success": 2249, "Texas": 2250, "##w": 2251, "summer": 2252, "island": 2253, "##N": 2254, "Republic": 2255, "length": 2256, "husband": 2257, "1980": 2258, "##ey": 2259, "reason": 2260, "anyone": 2261, "forced": 2262, "via": 2263, "base": 2264, "500": 2265, "job": 2266, "covered": 2267, "Festival": 2268, "Roman": 2269, "successful": 2270, "rights": 2271, "cover": 2272, "Man": 2273, "writing": 2274, "Ireland": 2275, "##F": 2276, "related": 2277, "goal": 2278, "takes": 2279, "buildings": 2280, "true": 2281, "weeks": 2282, "1983": 2283, "Because": 2284, "opening": 2285, "novel": 2286, "ISBN": 2287, "meet": 2288, "gold": 2289, "##ous": 2290, "mid": 2291, "km\u00b2": 2292, "standing": 2293, "Football": 2294, "Chicago": 2295, "shook": 2296, "whom": 2297, "##ki": 2298, "1982": 2299, "Day": 2300, "feeling": 2301, "scored": 2302, "boy": 2303, "higher": 2304, "Force": 2305, "leader": 2306, "heavy": 2307, "fall": 2308, "question": 2309, "sense": 2310, "army": 2311, "Second": 2312, "energy": 2313, "meeting": 2314, "themselves": 2315, "kill": 2316, "##am": 2317, "board": 2318, "census": 2319, "##ya": 2320, "##ns": 2321, "mine": 2322, "meant": 2323, "market": 2324, "required": 2325, "battle": 2326, "campaign": 2327, "attended": 2328, "approximately": 2329, "Kingdom": 2330, "runs": 2331, "active": 2332, "##ha": 2333, "contract": 2334, "clear": 2335, "previously": 2336, "health": 2337, "1979": 2338, "Arts": 2339, "complete": 2340, "Catholic": 2341, "couple": 2342, "units": 2343, "##ll": 2344, "##ty": 2345, "Committee": 2346, "shoulder": 2347, "sea": 2348, "systems": 2349, "listed": 2350, "##O": 2351, "caught": 2352, "tournament": 2353, "##G": 2354, "northern": 2355, "author": 2356, "Film": 2357, "Your": 2358, "##men": 2359, "holding": 2360, "offered": 2361, "personal": 2362, "1981": 2363, "southern": 2364, "artist": 2365, "traditional": 2366, "studio": 2367, "200": 2368, "capital": 2369, "##ful": 2370, "regular": 2371, "ask": 2372, "giving": 2373, "organization": 2374, "month": 2375, "news": 2376, "Are": 2377, "read": 2378, "managed": 2379, "helped": 2380, "studied": 2381, "student": 2382, "defeated": 2383, "natural": 2384, "industry": 2385, "Year": 2386, "noted": 2387, "decision": 2388, "Government": 2389, "quite": 2390, "##id": 2391, "smiled": 2392, "1972": 2393, "Maybe": 2394, "tracks": 2395, "##ke": 2396, "Mark": 2397, "al": 2398, "media": 2399, "engine": 2400, "hour": 2401, "Their": 2402, "relationship": 2403, "plays": 2404, "property": 2405, "structure": 2406, "1976": 2407, "ago": 2408, "Hill": 2409, "Martin": 2410, "1978": 2411, "ready": 2412, "Many": 2413, "Like": 2414, "Bay": 2415, "immediately": 2416, "generally": 2417, "Italy": 2418, "Greek": 2419, "practice": 2420, "caused": 2421, "division": 2422, "significant": 2423, "Joseph": 2424, "speed": 2425, "Let": 2426, "thinking": 2427, "completely": 2428, "1974": 2429, "primary": 2430, "mostly": 2431, "##field": 2432, "##K": 2433, "1975": 2434, "##to": 2435, "Even": 2436, "writer": 2437, "##led": 2438, "dropped": 2439, "magazine": 2440, "collection": 2441, "understand": 2442, "route": 2443, "highest": 2444, "particular": 2445, "films": 2446, "lines": 2447, "network": 2448, "Science": 2449, "loss": 2450, "carried": 2451, "direction": 2452, "green": 2453, "1977": 2454, "location": 2455, "producer": 2456, "according": 2457, "Women": 2458, "Queen": 2459, "neck": 2460, "thus": 2461, "independent": 2462, "view": 2463, "1970": 2464, "Angeles": 2465, "Soviet": 2466, "distance": 2467, "problem": 2468, "Board": 2469, "tour": 2470, "western": 2471, "income": 2472, "appearance": 2473, "access": 2474, "Mexico": 2475, "nodded": 2476, "street": 2477, "surface": 2478, "arrived": 2479, "believed": 2480, "Old": 2481, "1968": 2482, "1973": 2483, "becoming": 2484, "whether": 2485, "1945": 2486, "figure": 2487, "singer": 2488, "stand": 2489, "Following": 2490, "issue": 2491, "window": 2492, "wrong": 2493, "pain": 2494, "everyone": 2495, "lives": 2496, "issues": 2497, "park": 2498, "slowly": 2499, "la": 2500, "act": 2501, "##va": 2502, "bring": 2503, "Lee": 2504, "operations": 2505, "key": 2506, "comes": 2507, "fine": 2508, "cold": 2509, "famous": 2510, "Navy": 2511, "1971": 2512, "Me": 2513, "additional": 2514, "individual": 2515, "##ner": 2516, "Zealand": 2517, "goals": 2518, "county": 2519, "contains": 2520, "Service": 2521, "minute": 2522, "2nd": 2523, "reach": 2524, "talking": 2525, "particularly": 2526, "##ham": 2527, "movie": 2528, "Director": 2529, "glass": 2530, "paper": 2531, "studies": 2532, "##co": 2533, "railway": 2534, "standard": 2535, "Education": 2536, "45": 2537, "represented": 2538, "Chief": 2539, "Louis": 2540, "launched": 2541, "Star": 2542, "terms": 2543, "60": 2544, "1969": 2545, "experience": 2546, "watched": 2547, "Another": 2548, "Press": 2549, "Tom": 2550, "staff": 2551, "starting": 2552, "subject": 2553, "break": 2554, "Virginia": 2555, "nine": 2556, "eye": 2557, "##age": 2558, "evidence": 2559, "foot": 2560, "##est": 2561, "companies": 2562, "Prince": 2563, "##V": 2564, "gun": 2565, "create": 2566, "Big": 2567, "People": 2568, "guy": 2569, "Green": 2570, "simply": 2571, "numerous": 2572, "##line": 2573, "increased": 2574, "twenty": 2575, "##ga": 2576, "##do": 2577, "1967": 2578, "award": 2579, "officer": 2580, "stone": 2581, "Before": 2582, "material": 2583, "Northern": 2584, "grew": 2585, "male": 2586, "plant": 2587, "Life": 2588, "legs": 2589, "step": 2590, "Al": 2591, "unit": 2592, "35": 2593, "except": 2594, "answer": 2595, "##U": 2596, "report": 2597, "response": 2598, "Edward": 2599, "commercial": 2600, "edition": 2601, "trade": 2602, "science": 2603, "##ca": 2604, "Irish": 2605, "Law": 2606, "shown": 2607, "rate": 2608, "failed": 2609, "##ni": 2610, "remains": 2611, "changes": 2612, "mm": 2613, "limited": 2614, "larger": 2615, "Later": 2616, "cause": 2617, "waiting": 2618, "Time": 2619, "##wood": 2620, "cost": 2621, "Bill": 2622, "manager": 2623, "activities": 2624, "likely": 2625, "allow": 2626, "operated": 2627, "retired": 2628, "##ping": 2629, "65": 2630, "directly": 2631, "Who": 2632, "associated": 2633, "effect": 2634, "hell": 2635, "Florida": 2636, "straight": 2637, "hot": 2638, "Valley": 2639, "management": 2640, "girls": 2641, "expected": 2642, "eastern": 2643, "Mike": 2644, "chance": 2645, "cast": 2646, "centre": 2647, "chair": 2648, "hurt": 2649, "problems": 2650, "##li": 2651, "walk": 2652, "programs": 2653, "Team": 2654, "characters": 2655, "Battle": 2656, "edge": 2657, "pay": 2658, "maybe": 2659, "corner": 2660, "majority": 2661, "medical": 2662, "Joe": 2663, "Summer": 2664, "##io": 2665, "attempt": 2666, "Pacific": 2667, "command": 2668, "Radio": 2669, "##by": 2670, "names": 2671, "municipality": 2672, "1964": 2673, "train": 2674, "economic": 2675, "Brown": 2676, "feature": 2677, "sex": 2678, "source": 2679, "agreed": 2680, "remember": 2681, "Three": 2682, "1966": 2683, "1965": 2684, "Pennsylvania": 2685, "victory": 2686, "senior": 2687, "annual": 2688, "III": 2689, "Southern": 2690, "results": 2691, "Sam": 2692, "serving": 2693, "religious": 2694, "Jones": 2695, "appears": 2696, "##der": 2697, "despite": 2698, "claimed": 2699, "Both": 2700, "musical": 2701, "matches": 2702, "fast": 2703, "security": 2704, "selected": 2705, "Young": 2706, "double": 2707, "complex": 2708, "hospital": 2709, "chief": 2710, "Times": 2711, "##ve": 2712, "Championships": 2713, "filled": 2714, "Public": 2715, "Despite": 2716, "beautiful": 2717, "Research": 2718, "plans": 2719, "Province": 2720, "##ally": 2721, "Wales": 2722, "##ko": 2723, "artists": 2724, "metal": 2725, "nearby": 2726, "Spain": 2727, "##il": 2728, "32": 2729, "houses": 2730, "supported": 2731, "piece": 2732, "##no": 2733, "stared": 2734, "recording": 2735, "nature": 2736, "legal": 2737, "Russia": 2738, "##ization": 2739, "remaining": 2740, "looks": 2741, "##sh": 2742, "bridge": 2743, "closer": 2744, "cases": 2745, "scene": 2746, "marriage": 2747, "Little": 2748, "##\u00e9": 2749, "uses": 2750, "Earth": 2751, "specific": 2752, "Frank": 2753, "theory": 2754, "Good": 2755, "discovered": 2756, "referred": 2757, "bass": 2758, "culture": 2759, "university": 2760, "presented": 2761, "Congress": 2762, "##go": 2763, "metres": 2764, "continue": 2765, "1960": 2766, "isn": 2767, "Awards": 2768, "meaning": 2769, "cell": 2770, "composed": 2771, "separate": 2772, "Series": 2773, "forms": 2774, "Blue": 2775, "cross": 2776, "##tor": 2777, "increase": 2778, "test": 2779, "computer": 2780, "slightly": 2781, "Where": 2782, "Jewish": 2783, "Town": 2784, "tree": 2785, "status": 2786, "1944": 2787, "variety": 2788, "responsible": 2789, "pretty": 2790, "initially": 2791, "##way": 2792, "realized": 2793, "pass": 2794, "provides": 2795, "Captain": 2796, "Alexander": 2797, "recent": 2798, "score": 2799, "broke": 2800, "Scott": 2801, "drive": 2802, "financial": 2803, "showed": 2804, "Line": 2805, "stories": 2806, "ordered": 2807, "soldiers": 2808, "genus": 2809, "operation": 2810, "gaze": 2811, "sitting": 2812, "society": 2813, "Only": 2814, "hope": 2815, "actor": 2816, "follow": 2817, "Empire": 2818, "Yeah": 2819, "technology": 2820, "happy": 2821, "focus": 2822, "policy": 2823, "spread": 2824, "situation": 2825, "##ford": 2826, "##ba": 2827, "Mrs": 2828, "watch": 2829, "Can": 2830, "1963": 2831, "Commission": 2832, "touch": 2833, "earned": 2834, "troops": 2835, "Under": 2836, "1962": 2837, "individuals": 2838, "cannot": 2839, "19th": 2840, "##lin": 2841, "mile": 2842, "expression": 2843, "exactly": 2844, "suddenly": 2845, "weight": 2846, "dance": 2847, "stepped": 2848, "places": 2849, "appear": 2850, "difficult": 2851, "Railway": 2852, "anti": 2853, "numbers": 2854, "kilometres": 2855, "star": 2856, "##ier": 2857, "department": 2858, "ice": 2859, "Britain": 2860, "removed": 2861, "Once": 2862, "##lo": 2863, "Boston": 2864, "value": 2865, "##ant": 2866, "mission": 2867, "trees": 2868, "Order": 2869, "sports": 2870, "join": 2871, "serve": 2872, "Major": 2873, "poor": 2874, "Poland": 2875, "mainly": 2876, "Theatre": 2877, "pushed": 2878, "Station": 2879, "##it": 2880, "Lady": 2881, "federal": 2882, "silver": 2883, "##ler": 2884, "foreign": 2885, "##ard": 2886, "Eastern": 2887, "##den": 2888, "box": 2889, "hall": 2890, "subsequently": 2891, "lies": 2892, "acquired": 2893, "1942": 2894, "ancient": 2895, "CD": 2896, "History": 2897, "Jean": 2898, "beyond": 2899, "##ger": 2900, "El": 2901, "##les": 2902, "growing": 2903, "championship": 2904, "native": 2905, "Parliament": 2906, "Williams": 2907, "watching": 2908, "direct": 2909, "overall": 2910, "offer": 2911, "Also": 2912, "80": 2913, "Secretary": 2914, "spoke": 2915, "Latin": 2916, "ability": 2917, "##ated": 2918, "safe": 2919, "presence": 2920, "##ial": 2921, "headed": 2922, "regional": 2923, "planned": 2924, "1961": 2925, "Johnson": 2926, "throat": 2927, "consists": 2928, "##W": 2929, "extended": 2930, "Or": 2931, "bar": 2932, "walls": 2933, "Chris": 2934, "stations": 2935, "politician": 2936, "Olympics": 2937, "influence": 2938, "share": 2939, "fighting": 2940, "speak": 2941, "hundred": 2942, "Carolina": 2943, "die": 2944, "stars": 2945, "##tic": 2946, "color": 2947, "Chapter": 2948, "##ish": 2949, "fear": 2950, "sleep": 2951, "goes": 2952, "Francisco": 2953, "oil": 2954, "Bank": 2955, "sign": 2956, "physical": 2957, "##berg": 2958, "Dutch": 2959, "seasons": 2960, "##rd": 2961, "Games": 2962, "Governor": 2963, "sorry": 2964, "lack": 2965, "Centre": 2966, "memory": 2967, "baby": 2968, "smaller": 2969, "charge": 2970, "Did": 2971, "multiple": 2972, "ships": 2973, "shirt": 2974, "Assembly": 2975, "amount": 2976, "leaves": 2977, "3rd": 2978, "Foundation": 2979, "conditions": 2980, "1943": 2981, "Rock": 2982, "Democratic": 2983, "Daniel": 2984, "##at": 2985, "winner": 2986, "products": 2987, "##ina": 2988, "store": 2989, "latter": 2990, "Professor": 2991, "civil": 2992, "prior": 2993, "host": 2994, "1956": 2995, "soft": 2996, "vote": 2997, "needs": 2998, "Each": 2999, "rules": 3000, "1958": 3001, "pressure": 3002, "letter": 3003, "normal": 3004, "proposed": 3005, "levels": 3006, "records": 3007, "1959": 3008, "paid": 3009, "intended": 3010, "Victoria": 3011, "purpose": 3012, "okay": 3013, "historical": 3014, "issued": 3015, "1980s": 3016, "broadcast": 3017, "rule": 3018, "simple": 3019, "picked": 3020, "firm": 3021, "Sea": 3022, "1941": 3023, "Elizabeth": 3024, "1940": 3025, "serious": 3026, "featuring": 3027, "highly": 3028, "graduated": 3029, "mentioned": 3030, "choice": 3031, "1948": 3032, "replied": 3033, "percent": 3034, "Scotland": 3035, "##hi": 3036, "females": 3037, "constructed": 3038, "1957": 3039, "settled": 3040, "Steve": 3041, "recognized": 3042, "cities": 3043, "crew": 3044, "glanced": 3045, "kiss": 3046, "competed": 3047, "flight": 3048, "knowledge": 3049, "editor": 3050, "More": 3051, "Conference": 3052, "##H": 3053, "fifth": 3054, "elements": 3055, "##ee": 3056, "##tes": 3057, "function": 3058, "newspaper": 3059, "recently": 3060, "Miss": 3061, "cultural": 3062, "brown": 3063, "twice": 3064, "Office": 3065, "1939": 3066, "truth": 3067, "Creek": 3068, "1946": 3069, "households": 3070, "USA": 3071, "1950": 3072, "quality": 3073, "##tt": 3074, "border": 3075, "seconds": 3076, "destroyed": 3077, "pre": 3078, "wait": 3079, "ahead": 3080, "build": 3081, "image": 3082, "90": 3083, "cars": 3084, "##mi": 3085, "33": 3086, "promoted": 3087, "professor": 3088, "et": 3089, "bank": 3090, "medal": 3091, "text": 3092, "broken": 3093, "Middle": 3094, "revealed": 3095, "sides": 3096, "wing": 3097, "seems": 3098, "channel": 3099, "1970s": 3100, "Ben": 3101, "loved": 3102, "effort": 3103, "officers": 3104, "Will": 3105, "##ff": 3106, "70": 3107, "Israel": 3108, "Jim": 3109, "upper": 3110, "fully": 3111, "label": 3112, "Jr": 3113, "assistant": 3114, "powerful": 3115, "pair": 3116, "positive": 3117, "##ary": 3118, "gives": 3119, "1955": 3120, "20th": 3121, "races": 3122, "remain": 3123, "kitchen": 3124, "primarily": 3125, "##ti": 3126, "Sydney": 3127, "easy": 3128, "Tour": 3129, "whispered": 3130, "buried": 3131, "300": 3132, "News": 3133, "Polish": 3134, "1952": 3135, "Duke": 3136, "Columbia": 3137, "produce": 3138, "accepted": 3139, "00": 3140, "approach": 3141, "minor": 3142, "1947": 3143, "Special": 3144, "44": 3145, "Asian": 3146, "basis": 3147, "visit": 3148, "Fort": 3149, "Civil": 3150, "finish": 3151, "formerly": 3152, "beside": 3153, "leaned": 3154, "##ite": 3155, "median": 3156, "rose": 3157, "coast": 3158, "effects": 3159, "supposed": 3160, "Cross": 3161, "##hip": 3162, "Corps": 3163, "residents": 3164, "Jackson": 3165, "##ir": 3166, "Bob": 3167, "basketball": 3168, "36": 3169, "Asia": 3170, "seem": 3171, "Bishop": 3172, "Book": 3173, "##ber": 3174, "ring": 3175, "##ze": 3176, "owner": 3177, "BBC": 3178, "##ja": 3179, "transferred": 3180, "acting": 3181, "De": 3182, "appearances": 3183, "walking": 3184, "Le": 3185, "press": 3186, "grabbed": 3187, "1954": 3188, "officially": 3189, "1953": 3190, "##pe": 3191, "risk": 3192, "taught": 3193, "review": 3194, "##X": 3195, "lay": 3196, "##well": 3197, "council": 3198, "Avenue": 3199, "seeing": 3200, "losing": 3201, "Ohio": 3202, "Super": 3203, "province": 3204, "ones": 3205, "travel": 3206, "##sa": 3207, "projects": 3208, "equipment": 3209, "spot": 3210, "Berlin": 3211, "administrative": 3212, "heat": 3213, "potential": 3214, "shut": 3215, "capacity": 3216, "elections": 3217, "growth": 3218, "fought": 3219, "Republican": 3220, "mixed": 3221, "Andrew": 3222, "teacher": 3223, "turning": 3224, "strength": 3225, "shoulders": 3226, "beat": 3227, "wind": 3228, "1949": 3229, "Health": 3230, "follows": 3231, "camp": 3232, "suggested": 3233, "perhaps": 3234, "Alex": 3235, "mountain": 3236, "contact": 3237, "divided": 3238, "candidate": 3239, "fellow": 3240, "34": 3241, "Show": 3242, "necessary": 3243, "workers": 3244, "ball": 3245, "horse": 3246, "ways": 3247, "questions": 3248, "protect": 3249, "gas": 3250, "activity": 3251, "younger": 3252, "bottom": 3253, "founder": 3254, "Scottish": 3255, "screen": 3256, "treatment": 3257, "easily": 3258, "com": 3259, "##house": 3260, "dedicated": 3261, "Master": 3262, "warm": 3263, "Night": 3264, "Georgia": 3265, "Long": 3266, "von": 3267, "##me": 3268, "perfect": 3269, "website": 3270, "1960s": 3271, "piano": 3272, "efforts": 3273, "##ide": 3274, "Tony": 3275, "sort": 3276, "offers": 3277, "Development": 3278, "Simon": 3279, "executive": 3280, "##nd": 3281, "save": 3282, "Over": 3283, "Senate": 3284, "1951": 3285, "1990s": 3286, "draw": 3287, "master": 3288, "Police": 3289, "##ius": 3290, "renamed": 3291, "boys": 3292, "initial": 3293, "prominent": 3294, "damage": 3295, "Co": 3296, "##ov": 3297, "##za": 3298, "online": 3299, "begin": 3300, "occurred": 3301, "captured": 3302, "youth": 3303, "Top": 3304, "account": 3305, "tells": 3306, "Justice": 3307, "conducted": 3308, "forest": 3309, "##town": 3310, "bought": 3311, "teeth": 3312, "Jersey": 3313, "##di": 3314, "purchased": 3315, "agreement": 3316, "Michigan": 3317, "##ure": 3318, "campus": 3319, "prison": 3320, "becomes": 3321, "product": 3322, "secret": 3323, "guess": 3324, "Route": 3325, "huge": 3326, "types": 3327, "drums": 3328, "64": 3329, "split": 3330, "defeat": 3331, "estate": 3332, "housing": 3333, "##ot": 3334, "brothers": 3335, "Coast": 3336, "declared": 3337, "happen": 3338, "titled": 3339, "therefore": 3340, "sun": 3341, "commonly": 3342, "alongside": 3343, "Stadium": 3344, "library": 3345, "Home": 3346, "article": 3347, "steps": 3348, "telling": 3349, "slow": 3350, "assigned": 3351, "refused": 3352, "laughed": 3353, "wants": 3354, "Nick": 3355, "wearing": 3356, "Rome": 3357, "Open": 3358, "##ah": 3359, "Hospital": 3360, "pointed": 3361, "Taylor": 3362, "lifted": 3363, "escape": 3364, "participated": 3365, "##j": 3366, "drama": 3367, "parish": 3368, "Santa": 3369, "##per": 3370, "organized": 3371, "mass": 3372, "pick": 3373, "Airport": 3374, "gets": 3375, "Library": 3376, "unable": 3377, "pull": 3378, "Live": 3379, "##ging": 3380, "surrounding": 3381, "##ries": 3382, "focused": 3383, "Adam": 3384, "facilities": 3385, "##ning": 3386, "##ny": 3387, "38": 3388, "##ring": 3389, "notable": 3390, "era": 3391, "connected": 3392, "gained": 3393, "operating": 3394, "laid": 3395, "Regiment": 3396, "branch": 3397, "defined": 3398, "Christmas": 3399, "machine": 3400, "Four": 3401, "academic": 3402, "Iran": 3403, "adopted": 3404, "concept": 3405, "Men": 3406, "compared": 3407, "search": 3408, "traffic": 3409, "Max": 3410, "Maria": 3411, "greater": 3412, "##ding": 3413, "widely": 3414, "##burg": 3415, "serves": 3416, "1938": 3417, "37": 3418, "Go": 3419, "hotel": 3420, "shared": 3421, "typically": 3422, "scale": 3423, "1936": 3424, "leg": 3425, "suffered": 3426, "yards": 3427, "pieces": 3428, "Ministry": 3429, "Wilson": 3430, "episodes": 3431, "empty": 3432, "1918": 3433, "safety": 3434, "continues": 3435, "yellow": 3436, "historic": 3437, "settlement": 3438, "400": 3439, "Come": 3440, "Corporation": 3441, "enemy": 3442, "content": 3443, "picture": 3444, "evening": 3445, "territory": 3446, "method": 3447, "trial": 3448, "solo": 3449, "driver": 3450, "Here": 3451, "##ls": 3452, "entrance": 3453, "Prize": 3454, "spring": 3455, "whatever": 3456, "##ent": 3457, "75": 3458, "##ji": 3459, "reading": 3460, "Arthur": 3461, "##cy": 3462, "Our": 3463, "clothes": 3464, "Prime": 3465, "Illinois": 3466, "Kong": 3467, "code": 3468, "##ria": 3469, "sit": 3470, "Harry": 3471, "Federal": 3472, "chosen": 3473, "administration": 3474, "bodies": 3475, "begins": 3476, "stomach": 3477, "Though": 3478, "seats": 3479, "Hong": 3480, "density": 3481, "Sun": 3482, "leaders": 3483, "Field": 3484, "museum": 3485, "chart": 3486, "platform": 3487, "languages": 3488, "##ron": 3489, "birth": 3490, "holds": 3491, "Gold": 3492, "##un": 3493, "fish": 3494, "combined": 3495, "##ps": 3496, "4th": 3497, "1937": 3498, "largely": 3499, "captain": 3500, "trust": 3501, "Game": 3502, "van": 3503, "boat": 3504, "Oxford": 3505, "basic": 3506, "beneath": 3507, "Islands": 3508, "painting": 3509, "nice": 3510, "Toronto": 3511, "path": 3512, "males": 3513, "sources": 3514, "block": 3515, "conference": 3516, "parties": 3517, "murder": 3518, "clubs": 3519, "crowd": 3520, "calling": 3521, "About": 3522, "Business": 3523, "peace": 3524, "knows": 3525, "lake": 3526, "speaking": 3527, "stayed": 3528, "Brazil": 3529, "allowing": 3530, "Born": 3531, "unique": 3532, "thick": 3533, "Technology": 3534, "##que": 3535, "receive": 3536, "des": 3537, "semi": 3538, "alive": 3539, "noticed": 3540, "format": 3541, "##ped": 3542, "coffee": 3543, "digital": 3544, "##ned": 3545, "handed": 3546, "guard": 3547, "tall": 3548, "faced": 3549, "setting": 3550, "plants": 3551, "partner": 3552, "claim": 3553, "reduced": 3554, "temple": 3555, "animals": 3556, "determined": 3557, "classes": 3558, "##out": 3559, "estimated": 3560, "##ad": 3561, "Olympic": 3562, "providing": 3563, "Massachusetts": 3564, "learned": 3565, "Inc": 3566, "Philadelphia": 3567, "Social": 3568, "carry": 3569, "42": 3570, "possibly": 3571, "hosted": 3572, "tonight": 3573, "respectively": 3574, "Today": 3575, "shape": 3576, "Mount": 3577, "roles": 3578, "designated": 3579, "brain": 3580, "etc": 3581, "Korea": 3582, "thoughts": 3583, "Brian": 3584, "Highway": 3585, "doors": 3586, "background": 3587, "drew": 3588, "models": 3589, "footballer": 3590, "tone": 3591, "turns": 3592, "1935": 3593, "quiet": 3594, "tower": 3595, "wood": 3596, "bus": 3597, "write": 3598, "software": 3599, "weapons": 3600, "flat": 3601, "marked": 3602, "1920": 3603, "newly": 3604, "tight": 3605, "Eric": 3606, "finger": 3607, "Journal": 3608, "FC": 3609, "Van": 3610, "rise": 3611, "critical": 3612, "Atlantic": 3613, "granted": 3614, "returning": 3615, "communities": 3616, "humans": 3617, "quick": 3618, "39": 3619, "48": 3620, "ranked": 3621, "sight": 3622, "pop": 3623, "Swedish": 3624, "Stephen": 3625, "card": 3626, "analysis": 3627, "attacked": 3628, "##wa": 3629, "Sunday": 3630, "identified": 3631, "Jason": 3632, "champion": 3633, "situated": 3634, "1930": 3635, "expanded": 3636, "tears": 3637, "##nce": 3638, "reaching": 3639, "Davis": 3640, "protection": 3641, "Emperor": 3642, "positions": 3643, "nominated": 3644, "Bridge": 3645, "tax": 3646, "dress": 3647, "allows": 3648, "avoid": 3649, "leadership": 3650, "killing": 3651, "actress": 3652, "guest": 3653, "steel": 3654, "knowing": 3655, "electric": 3656, "cells": 3657, "disease": 3658, "grade": 3659, "unknown": 3660, "##ium": 3661, "resulted": 3662, "Pakistan": 3663, "confirmed": 3664, "##ged": 3665, "tongue": 3666, "covers": 3667, "##Y": 3668, "roof": 3669, "entirely": 3670, "applied": 3671, "votes": 3672, "drink": 3673, "interview": 3674, "exchange": 3675, "Township": 3676, "reasons": 3677, "##ised": 3678, "page": 3679, "calls": 3680, "dog": 3681, "agent": 3682, "nose": 3683, "teaching": 3684, "##ds": 3685, "##ists": 3686, "advanced": 3687, "wish": 3688, "Golden": 3689, "existing": 3690, "vehicle": 3691, "del": 3692, "1919": 3693, "develop": 3694, "attacks": 3695, "pressed": 3696, "Sports": 3697, "planning": 3698, "resulting": 3699, "facility": 3700, "Sarah": 3701, "notes": 3702, "1933": 3703, "Class": 3704, "Historic": 3705, "winter": 3706, "##mo": 3707, "audience": 3708, "Community": 3709, "household": 3710, "Netherlands": 3711, "creation": 3712, "##ize": 3713, "keeping": 3714, "1914": 3715, "claims": 3716, "dry": 3717, "guys": 3718, "opposite": 3719, "##ak": 3720, "explained": 3721, "Ontario": 3722, "secondary": 3723, "difference": 3724, "Francis": 3725, "actions": 3726, "organizations": 3727, "yard": 3728, "animal": 3729, "Up": 3730, "Lewis": 3731, "titles": 3732, "Several": 3733, "1934": 3734, "Ryan": 3735, "55": 3736, "Supreme": 3737, "rolled": 3738, "1917": 3739, "distribution": 3740, "figures": 3741, "afraid": 3742, "rural": 3743, "yourself": 3744, "##rt": 3745, "sets": 3746, "barely": 3747, "Instead": 3748, "passing": 3749, "awards": 3750, "41": 3751, "silence": 3752, "authority": 3753, "occupied": 3754, "environment": 3755, "windows": 3756, "engineering": 3757, "surprised": 3758, "flying": 3759, "crime": 3760, "reports": 3761, "Mountain": 3762, "powers": 3763, "driving": 3764, "succeeded": 3765, "reviews": 3766, "1929": 3767, "Head": 3768, "missing": 3769, "Song": 3770, "Jesus": 3771, "opportunity": 3772, "inspired": 3773, "ends": 3774, "albums": 3775, "conversation": 3776, "impact": 3777, "injury": 3778, "surprise": 3779, "billion": 3780, "learning": 3781, "heavily": 3782, "oldest": 3783, "union": 3784, "creating": 3785, "##ky": 3786, "festival": 3787, "literature": 3788, "letters": 3789, "sexual": 3790, "##tte": 3791, "apartment": 3792, "Final": 3793, "comedy": 3794, "nation": 3795, "orders": 3796, "##sen": 3797, "contemporary": 3798, "Power": 3799, "drawn": 3800, "existence": 3801, "connection": 3802, "##ating": 3803, "Post": 3804, "Junior": 3805, "remembered": 3806, "message": 3807, "Medal": 3808, "castle": 3809, "note": 3810, "engineer": 3811, "sounds": 3812, "Beach": 3813, "crossed": 3814, "##dy": 3815, "ear": 3816, "scientific": 3817, "sales": 3818, "##ai": 3819, "theme": 3820, "starts": 3821, "clearly": 3822, "##ut": 3823, "trouble": 3824, "##gan": 3825, "bag": 3826, "##han": 3827, "BC": 3828, "sons": 3829, "1928": 3830, "silent": 3831, "versions": 3832, "daily": 3833, "Studies": 3834, "ending": 3835, "Rose": 3836, "guns": 3837, "1932": 3838, "headquarters": 3839, "reference": 3840, "obtained": 3841, "Squadron": 3842, "concert": 3843, "none": 3844, "du": 3845, "Among": 3846, "##don": 3847, "prevent": 3848, "Member": 3849, "answered": 3850, "staring": 3851, "Between": 3852, "##lla": 3853, "portion": 3854, "drug": 3855, "liked": 3856, "association": 3857, "performances": 3858, "Nations": 3859, "formation": 3860, "Castle": 3861, "lose": 3862, "learn": 3863, "scoring": 3864, "relatively": 3865, "quarter": 3866, "47": 3867, "Premier": 3868, "##ors": 3869, "Sweden": 3870, "baseball": 3871, "attempted": 3872, "trip": 3873, "worth": 3874, "perform": 3875, "airport": 3876, "fields": 3877, "enter": 3878, "honor": 3879, "Medical": 3880, "rear": 3881, "commander": 3882, "officials": 3883, "condition": 3884, "supply": 3885, "materials": 3886, "52": 3887, "Anna": 3888, "volume": 3889, "threw": 3890, "Persian": 3891, "43": 3892, "interested": 3893, "Gallery": 3894, "achieved": 3895, "visited": 3896, "laws": 3897, "relief": 3898, "Area": 3899, "Matt": 3900, "singles": 3901, "Lieutenant": 3902, "Country": 3903, "fans": 3904, "Cambridge": 3905, "sky": 3906, "Miller": 3907, "effective": 3908, "tradition": 3909, "Port": 3910, "##ana": 3911, "minister": 3912, "extra": 3913, "entitled": 3914, "System": 3915, "sites": 3916, "authorities": 3917, "acres": 3918, "committee": 3919, "racing": 3920, "1931": 3921, "desk": 3922, "trains": 3923, "ass": 3924, "weren": 3925, "Family": 3926, "farm": 3927, "##ance": 3928, "industrial": 3929, "##head": 3930, "iron": 3931, "49": 3932, "abandoned": 3933, "Out": 3934, "Holy": 3935, "chairman": 3936, "waited": 3937, "frequently": 3938, "display": 3939, "Light": 3940, "transport": 3941, "starring": 3942, "Patrick": 3943, "Engineering": 3944, "eat": 3945, "FM": 3946, "judge": 3947, "reaction": 3948, "centuries": 3949, "price": 3950, "##tive": 3951, "Korean": 3952, "defense": 3953, "Get": 3954, "arrested": 3955, "1927": 3956, "send": 3957, "urban": 3958, "##ss": 3959, "pilot": 3960, "Okay": 3961, "Media": 3962, "reality": 3963, "arts": 3964, "soul": 3965, "thirty": 3966, "##be": 3967, "catch": 3968, "generation": 3969, "##nes": 3970, "apart": 3971, "Anne": 3972, "drop": 3973, "See": 3974, "##ving": 3975, "sixth": 3976, "trained": 3977, "Management": 3978, "magic": 3979, "cm": 3980, "height": 3981, "Fox": 3982, "Ian": 3983, "resources": 3984, "vampire": 3985, "principal": 3986, "Was": 3987, "haven": 3988, "##au": 3989, "Walter": 3990, "Albert": 3991, "rich": 3992, "1922": 3993, "causing": 3994, "entry": 3995, "##ell": 3996, "shortly": 3997, "46": 3998, "worry": 3999, "doctor": 4000, "composer": 4001, "rank": 4002, "Network": 4003, "bright": 4004, "showing": 4005, "regions": 4006, "1924": 4007, "wave": 4008, "carrying": 4009, "kissed": 4010, "finding": 4011, "missed": 4012, "Earl": 4013, "lying": 4014, "target": 4015, "vehicles": 4016, "Military": 4017, "controlled": 4018, "dinner": 4019, "##board": 4020, "briefly": 4021, "lyrics": 4022, "motion": 4023, "duty": 4024, "strange": 4025, "attempts": 4026, "invited": 4027, "kg": 4028, "villages": 4029, "5th": 4030, "Land": 4031, "##mer": 4032, "Christ": 4033, "prepared": 4034, "twelve": 4035, "check": 4036, "thousand": 4037, "earth": 4038, "copies": 4039, "en": 4040, "transfer": 4041, "citizens": 4042, "Americans": 4043, "politics": 4044, "nor": 4045, "theatre": 4046, "Project": 4047, "##bo": 4048, "clean": 4049, "rooms": 4050, "laugh": 4051, "##ran": 4052, "application": 4053, "contained": 4054, "anyway": 4055, "containing": 4056, "Sciences": 4057, "1925": 4058, "rare": 4059, "speech": 4060, "exist": 4061, "1950s": 4062, "falling": 4063, "passenger": 4064, "##im": 4065, "stands": 4066, "51": 4067, "##ol": 4068, "##ow": 4069, "phase": 4070, "governor": 4071, "kids": 4072, "details": 4073, "methods": 4074, "Vice": 4075, "employed": 4076, "performing": 4077, "counter": 4078, "Jane": 4079, "heads": 4080, "Channel": 4081, "wine": 4082, "opposition": 4083, "aged": 4084, "1912": 4085, "Every": 4086, "1926": 4087, "highway": 4088, "##ura": 4089, "1921": 4090, "aired": 4091, "978": 4092, "permanent": 4093, "Forest": 4094, "finds": 4095, "joint": 4096, "approved": 4097, "##pur": 4098, "brief": 4099, "doubt": 4100, "acts": 4101, "brand": 4102, "wild": 4103, "closely": 4104, "Ford": 4105, "Kevin": 4106, "chose": 4107, "shall": 4108, "port": 4109, "sweet": 4110, "fun": 4111, "asking": 4112, "Be": 4113, "##bury": 4114, "sought": 4115, "Dave": 4116, "Mexican": 4117, "mom": 4118, "Right": 4119, "Howard": 4120, "Moscow": 4121, "Charlie": 4122, "Stone": 4123, "##mann": 4124, "admitted": 4125, "##ver": 4126, "wooden": 4127, "1923": 4128, "Officer": 4129, "relations": 4130, "Hot": 4131, "combat": 4132, "publication": 4133, "chain": 4134, "shop": 4135, "inhabitants": 4136, "proved": 4137, "ideas": 4138, "address": 4139, "1915": 4140, "Memorial": 4141, "explain": 4142, "increasing": 4143, "conflict": 4144, "Anthony": 4145, "Melbourne": 4146, "narrow": 4147, "temperature": 4148, "slid": 4149, "1916": 4150, "worse": 4151, "selling": 4152, "documentary": 4153, "Ali": 4154, "Ray": 4155, "opposed": 4156, "vision": 4157, "dad": 4158, "extensive": 4159, "Infantry": 4160, "commissioned": 4161, "Doctor": 4162, "offices": 4163, "programming": 4164, "core": 4165, "respect": 4166, "storm": 4167, "##pa": 4168, "##ay": 4169, "##om": 4170, "promotion": 4171, "der": 4172, "struck": 4173, "anymore": 4174, "shit": 4175, "Region": 4176, "receiving": 4177, "DVD": 4178, "alternative": 4179, "##ue": 4180, "ride": 4181, "maximum": 4182, "1910": 4183, "##ious": 4184, "Third": 4185, "Affairs": 4186, "cancer": 4187, "Executive": 4188, "##op": 4189, "dream": 4190, "18th": 4191, "Due": 4192, "##ker": 4193, "##worth": 4194, "economy": 4195, "IV": 4196, "Billboard": 4197, "identity": 4198, "subsequent": 4199, "statement": 4200, "skills": 4201, "##back": 4202, "funding": 4203, "##ons": 4204, "Round": 4205, "Foreign": 4206, "truck": 4207, "Please": 4208, "lights": 4209, "wondered": 4210, "##ms": 4211, "frame": 4212, "yes": 4213, "Still": 4214, "districts": 4215, "fiction": 4216, "Colonel": 4217, "converted": 4218, "150": 4219, "grown": 4220, "accident": 4221, "critics": 4222, "fit": 4223, "Information": 4224, "architecture": 4225, "Point": 4226, "Five": 4227, "armed": 4228, "Billy": 4229, "poet": 4230, "functions": 4231, "consisted": 4232, "suit": 4233, "Turkish": 4234, "Band": 4235, "object": 4236, "desire": 4237, "##ities": 4238, "sounded": 4239, "flow": 4240, "Norwegian": 4241, "articles": 4242, "Marie": 4243, "pulling": 4244, "thin": 4245, "singing": 4246, "Hunter": 4247, "Human": 4248, "Battalion": 4249, "Federation": 4250, "Kim": 4251, "origin": 4252, "represent": 4253, "dangerous": 4254, "weather": 4255, "fuel": 4256, "ex": 4257, "##sing": 4258, "Last": 4259, "bedroom": 4260, "aid": 4261, "knees": 4262, "Alan": 4263, "angry": 4264, "assumed": 4265, "plane": 4266, "Something": 4267, "founding": 4268, "concerned": 4269, "global": 4270, "Fire": 4271, "di": 4272, "please": 4273, "Portuguese": 4274, "touched": 4275, "Roger": 4276, "nuclear": 4277, "Register": 4278, "Jeff": 4279, "fixed": 4280, "royal": 4281, "lie": 4282, "finals": 4283, "NFL": 4284, "Manchester": 4285, "towns": 4286, "handle": 4287, "shaped": 4288, "Chairman": 4289, "Dean": 4290, "launch": 4291, "understanding": 4292, "Children": 4293, "violence": 4294, "failure": 4295, "sector": 4296, "Brigade": 4297, "wrapped": 4298, "fired": 4299, "sharp": 4300, "tiny": 4301, "developing": 4302, "expansion": 4303, "Free": 4304, "institutions": 4305, "technical": 4306, "Nothing": 4307, "otherwise": 4308, "Main": 4309, "inch": 4310, "Saturday": 4311, "wore": 4312, "Senior": 4313, "attached": 4314, "cheek": 4315, "representing": 4316, "Kansas": 4317, "##chi": 4318, "##kin": 4319, "actual": 4320, "advantage": 4321, "Dan": 4322, "Austria": 4323, "##dale": 4324, "hoped": 4325, "multi": 4326, "squad": 4327, "Norway": 4328, "streets": 4329, "1913": 4330, "Services": 4331, "hired": 4332, "grow": 4333, "pp": 4334, "wear": 4335, "painted": 4336, "Minnesota": 4337, "stuff": 4338, "Building": 4339, "54": 4340, "Philippines": 4341, "1900": 4342, "##ties": 4343, "educational": 4344, "Khan": 4345, "Magazine": 4346, "##port": 4347, "Cape": 4348, "signal": 4349, "Gordon": 4350, "sword": 4351, "Anderson": 4352, "cool": 4353, "engaged": 4354, "Commander": 4355, "images": 4356, "Upon": 4357, "tied": 4358, "Security": 4359, "cup": 4360, "rail": 4361, "Vietnam": 4362, "successfully": 4363, "##red": 4364, "Muslim": 4365, "gain": 4366, "bringing": 4367, "Native": 4368, "hers": 4369, "occurs": 4370, "negative": 4371, "Philip": 4372, "Kelly": 4373, "Colorado": 4374, "category": 4375, "##lan": 4376, "600": 4377, "Have": 4378, "supporting": 4379, "wet": 4380, "56": 4381, "stairs": 4382, "Grace": 4383, "observed": 4384, "##ung": 4385, "funds": 4386, "restaurant": 4387, "1911": 4388, "Jews": 4389, "##ments": 4390, "##che": 4391, "Jake": 4392, "Back": 4393, "53": 4394, "asks": 4395, "journalist": 4396, "accept": 4397, "bands": 4398, "bronze": 4399, "helping": 4400, "##ice": 4401, "decades": 4402, "mayor": 4403, "survived": 4404, "usual": 4405, "influenced": 4406, "Douglas": 4407, "Hey": 4408, "##izing": 4409, "surrounded": 4410, "retirement": 4411, "Temple": 4412, "derived": 4413, "Pope": 4414, "registered": 4415, "producing": 4416, "##ral": 4417, "structures": 4418, "Johnny": 4419, "contributed": 4420, "finishing": 4421, "buy": 4422, "specifically": 4423, "##king": 4424, "patients": 4425, "Jordan": 4426, "internal": 4427, "regarding": 4428, "Samuel": 4429, "Clark": 4430, "##q": 4431, "afternoon": 4432, "Finally": 4433, "scenes": 4434, "notice": 4435, "refers": 4436, "quietly": 4437, "threat": 4438, "Water": 4439, "Those": 4440, "Hamilton": 4441, "promise": 4442, "freedom": 4443, "Turkey": 4444, "breaking": 4445, "maintained": 4446, "device": 4447, "lap": 4448, "ultimately": 4449, "Champion": 4450, "Tim": 4451, "Bureau": 4452, "expressed": 4453, "investigation": 4454, "extremely": 4455, "capable": 4456, "qualified": 4457, "recognition": 4458, "items": 4459, "##up": 4460, "Indiana": 4461, "adult": 4462, "rain": 4463, "greatest": 4464, "architect": 4465, "Morgan": 4466, "dressed": 4467, "equal": 4468, "Antonio": 4469, "collected": 4470, "drove": 4471, "occur": 4472, "Grant": 4473, "graduate": 4474, "anger": 4475, "Sri": 4476, "worried": 4477, "standards": 4478, "##ore": 4479, "injured": 4480, "somewhere": 4481, "damn": 4482, "Singapore": 4483, "Jimmy": 4484, "pocket": 4485, "homes": 4486, "stock": 4487, "religion": 4488, "aware": 4489, "regarded": 4490, "Wisconsin": 4491, "##tra": 4492, "passes": 4493, "fresh": 4494, "##ea": 4495, "argued": 4496, "Ltd": 4497, "EP": 4498, "Diego": 4499, "importance": 4500, "Census": 4501, "incident": 4502, "Egypt": 4503, "Missouri": 4504, "domestic": 4505, "leads": 4506, "ceremony": 4507, "Early": 4508, "camera": 4509, "Father": 4510, "challenge": 4511, "Switzerland": 4512, "lands": 4513, "familiar": 4514, "hearing": 4515, "spend": 4516, "educated": 4517, "Tennessee": 4518, "Thank": 4519, "##ram": 4520, "Thus": 4521, "concern": 4522, "putting": 4523, "inches": 4524, "map": 4525, "classical": 4526, "Allen": 4527, "crazy": 4528, "valley": 4529, "Space": 4530, "softly": 4531, "##my": 4532, "pool": 4533, "worldwide": 4534, "climate": 4535, "experienced": 4536, "neighborhood": 4537, "scheduled": 4538, "neither": 4539, "fleet": 4540, "1908": 4541, "Girl": 4542, "##J": 4543, "Part": 4544, "engines": 4545, "locations": 4546, "darkness": 4547, "Revolution": 4548, "establishment": 4549, "lawyer": 4550, "objects": 4551, "apparently": 4552, "Queensland": 4553, "Entertainment": 4554, "bill": 4555, "mark": 4556, "Television": 4557, "##ong": 4558, "pale": 4559, "demand": 4560, "Hotel": 4561, "selection": 4562, "##rn": 4563, "##ino": 4564, "Labour": 4565, "Liberal": 4566, "burned": 4567, "Mom": 4568, "merged": 4569, "Arizona": 4570, "request": 4571, "##lia": 4572, "##light": 4573, "hole": 4574, "employees": 4575, "##ical": 4576, "incorporated": 4577, "95": 4578, "independence": 4579, "Walker": 4580, "covering": 4581, "joining": 4582, "##ica": 4583, "task": 4584, "papers": 4585, "backing": 4586, "sell": 4587, "biggest": 4588, "6th": 4589, "strike": 4590, "establish": 4591, "##\u014d": 4592, "gently": 4593, "59": 4594, "Orchestra": 4595, "Winter": 4596, "protein": 4597, "Juan": 4598, "locked": 4599, "dates": 4600, "Boy": 4601, "aren": 4602, "shooting": 4603, "Luke": 4604, "solid": 4605, "charged": 4606, "Prior": 4607, "resigned": 4608, "interior": 4609, "garden": 4610, "spoken": 4611, "improve": 4612, "wonder": 4613, "promote": 4614, "hidden": 4615, "##med": 4616, "combination": 4617, "Hollywood": 4618, "Swiss": 4619, "consider": 4620, "##ks": 4621, "Lincoln": 4622, "literary": 4623, "drawing": 4624, "Marine": 4625, "weapon": 4626, "Victor": 4627, "Trust": 4628, "Maryland": 4629, "properties": 4630, "##ara": 4631, "exhibition": 4632, "understood": 4633, "hung": 4634, "Tell": 4635, "installed": 4636, "loud": 4637, "fashion": 4638, "affected": 4639, "junior": 4640, "landing": 4641, "flowers": 4642, "##he": 4643, "Internet": 4644, "beach": 4645, "Heart": 4646, "tries": 4647, "Mayor": 4648, "programme": 4649, "800": 4650, "wins": 4651, "noise": 4652, "##ster": 4653, "##ory": 4654, "58": 4655, "contain": 4656, "fair": 4657, "delivered": 4658, "##ul": 4659, "wedding": 4660, "Square": 4661, "advance": 4662, "behavior": 4663, "Program": 4664, "Oregon": 4665, "##rk": 4666, "residence": 4667, "realize": 4668, "certainly": 4669, "hill": 4670, "Houston": 4671, "57": 4672, "indicated": 4673, "##water": 4674, "wounded": 4675, "Village": 4676, "massive": 4677, "Moore": 4678, "thousands": 4679, "personnel": 4680, "dating": 4681, "opera": 4682, "poetry": 4683, "##her": 4684, "causes": 4685, "feelings": 4686, "Frederick": 4687, "applications": 4688, "push": 4689, "approached": 4690, "foundation": 4691, "pleasure": 4692, "sale": 4693, "fly": 4694, "gotten": 4695, "northeast": 4696, "costs": 4697, "raise": 4698, "paintings": 4699, "##ney": 4700, "views": 4701, "horses": 4702, "formal": 4703, "Arab": 4704, "hockey": 4705, "typical": 4706, "representative": 4707, "rising": 4708, "##des": 4709, "clock": 4710, "stadium": 4711, "shifted": 4712, "Dad": 4713, "peak": 4714, "Fame": 4715, "vice": 4716, "disappeared": 4717, "users": 4718, "Way": 4719, "Naval": 4720, "prize": 4721, "hoping": 4722, "values": 4723, "evil": 4724, "Bell": 4725, "consisting": 4726, "##\u00f3n": 4727, "Regional": 4728, "##ics": 4729, "improved": 4730, "circle": 4731, "carefully": 4732, "broad": 4733, "##ini": 4734, "Fine": 4735, "maintain": 4736, "operate": 4737, "offering": 4738, "mention": 4739, "Death": 4740, "stupid": 4741, "Through": 4742, "Princess": 4743, "attend": 4744, "interests": 4745, "ruled": 4746, "somewhat": 4747, "wings": 4748, "roads": 4749, "grounds": 4750, "##ual": 4751, "Greece": 4752, "Champions": 4753, "facing": 4754, "hide": 4755, "voted": 4756, "require": 4757, "Dark": 4758, "Matthew": 4759, "credit": 4760, "sighed": 4761, "separated": 4762, "manner": 4763, "##ile": 4764, "Boys": 4765, "1905": 4766, "committed": 4767, "impossible": 4768, "lip": 4769, "candidates": 4770, "7th": 4771, "Bruce": 4772, "arranged": 4773, "Islamic": 4774, "courses": 4775, "criminal": 4776, "##ened": 4777, "smell": 4778, "##bed": 4779, "08": 4780, "consecutive": 4781, "##ening": 4782, "proper": 4783, "purchase": 4784, "weak": 4785, "Prix": 4786, "1906": 4787, "aside": 4788, "introduction": 4789, "Look": 4790, "##ku": 4791, "changing": 4792, "budget": 4793, "resistance": 4794, "factory": 4795, "Forces": 4796, "agency": 4797, "##tone": 4798, "northwest": 4799, "user": 4800, "1907": 4801, "stating": 4802, "##one": 4803, "sport": 4804, "Design": 4805, "environmental": 4806, "cards": 4807, "concluded": 4808, "Carl": 4809, "250": 4810, "accused": 4811, "##ology": 4812, "Girls": 4813, "sick": 4814, "intelligence": 4815, "Margaret": 4816, "responsibility": 4817, "Guard": 4818, "##tus": 4819, "17th": 4820, "sq": 4821, "goods": 4822, "1909": 4823, "hate": 4824, "##ek": 4825, "capture": 4826, "stores": 4827, "Gray": 4828, "comic": 4829, "Modern": 4830, "Silver": 4831, "Andy": 4832, "electronic": 4833, "wheel": 4834, "##ied": 4835, "Deputy": 4836, "##bs": 4837, "Czech": 4838, "zone": 4839, "choose": 4840, "constant": 4841, "reserve": 4842, "##lle": 4843, "Tokyo": 4844, "spirit": 4845, "sub": 4846, "degrees": 4847, "flew": 4848, "pattern": 4849, "compete": 4850, "Dance": 4851, "##ik": 4852, "secretary": 4853, "Imperial": 4854, "99": 4855, "reduce": 4856, "Hungarian": 4857, "confused": 4858, "##rin": 4859, "Pierre": 4860, "describes": 4861, "regularly": 4862, "Rachel": 4863, "85": 4864, "landed": 4865, "passengers": 4866, "##ise": 4867, "##sis": 4868, "historian": 4869, "meters": 4870, "Youth": 4871, "##ud": 4872, "participate": 4873, "##cing": 4874, "arrival": 4875, "tired": 4876, "Mother": 4877, "##gy": 4878, "jumped": 4879, "Kentucky": 4880, "faces": 4881, "feed": 4882, "Israeli": 4883, "Ocean": 4884, "##Q": 4885, "##\u00e1n": 4886, "plus": 4887, "snow": 4888, "techniques": 4889, "plate": 4890, "sections": 4891, "falls": 4892, "jazz": 4893, "##ris": 4894, "tank": 4895, "loan": 4896, "repeated": 4897, "opinion": 4898, "##res": 4899, "unless": 4900, "rugby": 4901, "journal": 4902, "Lawrence": 4903, "moments": 4904, "shock": 4905, "distributed": 4906, "##ded": 4907, "adjacent": 4908, "Argentina": 4909, "crossing": 4910, "uncle": 4911, "##ric": 4912, "Detroit": 4913, "communication": 4914, "mental": 4915, "tomorrow": 4916, "session": 4917, "Emma": 4918, "Without": 4919, "##gen": 4920, "Miami": 4921, "charges": 4922, "Administration": 4923, "hits": 4924, "coat": 4925, "protected": 4926, "Cole": 4927, "invasion": 4928, "priest": 4929, "09": 4930, "Gary": 4931, "enjoyed": 4932, "plot": 4933, "measure": 4934, "bound": 4935, "friendly": 4936, "throw": 4937, "musician": 4938, "##lon": 4939, "##ins": 4940, "Age": 4941, "knife": 4942, "damaged": 4943, "birds": 4944, "driven": 4945, "lit": 4946, "ears": 4947, "breathing": 4948, "Arabic": 4949, "Jan": 4950, "faster": 4951, "Jonathan": 4952, "##gate": 4953, "Independent": 4954, "starred": 4955, "Harris": 4956, "teachers": 4957, "Alice": 4958, "sequence": 4959, "mph": 4960, "file": 4961, "translated": 4962, "decide": 4963, "determine": 4964, "Review": 4965, "documents": 4966, "sudden": 4967, "threatened": 4968, "##ft": 4969, "bear": 4970, "distinct": 4971, "decade": 4972, "burning": 4973, "##sky": 4974, "1930s": 4975, "replace": 4976, "begun": 4977, "extension": 4978, "##time": 4979, "1904": 4980, "equivalent": 4981, "accompanied": 4982, "Christopher": 4983, "Danish": 4984, "##ye": 4985, "Besides": 4986, "##more": 4987, "persons": 4988, "fallen": 4989, "Rural": 4990, "roughly": 4991, "saved": 4992, "willing": 4993, "ensure": 4994, "Belgium": 4995, "05": 4996, "musicians": 4997, "##ang": 4998, "giant": 4999, "Six": 5000, "Retrieved": 5001, "worst": 5002, "purposes": 5003, "##bly": 5004, "mountains": 5005, "seventh": 5006, "slipped": 5007, "brick": 5008, "07": 5009, "##py": 5010, "somehow": 5011, "Carter": 5012, "Iraq": 5013, "cousin": 5014, "favor": 5015, "islands": 5016, "journey": 5017, "FIFA": 5018, "contrast": 5019, "planet": 5020, "vs": 5021, "calm": 5022, "##ings": 5023, "concrete": 5024, "branches": 5025, "gray": 5026, "profit": 5027, "Russell": 5028, "##ae": 5029, "##ux": 5030, "##ens": 5031, "philosophy": 5032, "businesses": 5033, "talked": 5034, "parking": 5035, "##ming": 5036, "owners": 5037, "Place": 5038, "##tle": 5039, "agricultural": 5040, "Kate": 5041, "06": 5042, "southeast": 5043, "draft": 5044, "Eddie": 5045, "earliest": 5046, "forget": 5047, "Dallas": 5048, "Commonwealth": 5049, "edited": 5050, "66": 5051, "inner": 5052, "ed": 5053, "operates": 5054, "16th": 5055, "Harvard": 5056, "assistance": 5057, "##si": 5058, "designs": 5059, "Take": 5060, "bathroom": 5061, "indicate": 5062, "CEO": 5063, "Command": 5064, "Louisiana": 5065, "1902": 5066, "Dublin": 5067, "Books": 5068, "1901": 5069, "tropical": 5070, "1903": 5071, "##tors": 5072, "Places": 5073, "tie": 5074, "progress": 5075, "forming": 5076, "solution": 5077, "62": 5078, "letting": 5079, "##ery": 5080, "studying": 5081, "##jo": 5082, "duties": 5083, "Baseball": 5084, "taste": 5085, "Reserve": 5086, "##ru": 5087, "Ann": 5088, "##gh": 5089, "visible": 5090, "##vi": 5091, "notably": 5092, "link": 5093, "NCAA": 5094, "southwest": 5095, "Never": 5096, "storage": 5097, "mobile": 5098, "writers": 5099, "favorite": 5100, "Pro": 5101, "pages": 5102, "truly": 5103, "count": 5104, "##tta": 5105, "string": 5106, "kid": 5107, "98": 5108, "Ross": 5109, "row": 5110, "##idae": 5111, "Kennedy": 5112, "##tan": 5113, "Hockey": 5114, "hip": 5115, "waist": 5116, "grandfather": 5117, "listen": 5118, "##ho": 5119, "feels": 5120, "busy": 5121, "72": 5122, "stream": 5123, "obvious": 5124, "cycle": 5125, "shaking": 5126, "Knight": 5127, "##ren": 5128, "Carlos": 5129, "painter": 5130, "trail": 5131, "web": 5132, "linked": 5133, "04": 5134, "Palace": 5135, "existed": 5136, "##ira": 5137, "responded": 5138, "closing": 5139, "End": 5140, "examples": 5141, "Marshall": 5142, "weekend": 5143, "jaw": 5144, "Denmark": 5145, "lady": 5146, "township": 5147, "medium": 5148, "chin": 5149, "Story": 5150, "option": 5151, "fifteen": 5152, "Moon": 5153, "represents": 5154, "makeup": 5155, "investment": 5156, "jump": 5157, "childhood": 5158, "Oklahoma": 5159, "roll": 5160, "normally": 5161, "Ten": 5162, "Operation": 5163, "Graham": 5164, "Seattle": 5165, "Atlanta": 5166, "paused": 5167, "promised": 5168, "rejected": 5169, "treated": 5170, "returns": 5171, "flag": 5172, "##ita": 5173, "Hungary": 5174, "danger": 5175, "glad": 5176, "movements": 5177, "visual": 5178, "subjects": 5179, "credited": 5180, "soldier": 5181, "Norman": 5182, "ill": 5183, "translation": 5184, "Jos\u00e9": 5185, "Quebec": 5186, "medicine": 5187, "warning": 5188, "theater": 5189, "praised": 5190, "municipal": 5191, "01": 5192, "commune": 5193, "churches": 5194, "acid": 5195, "folk": 5196, "8th": 5197, "testing": 5198, "add": 5199, "survive": 5200, "Sound": 5201, "devices": 5202, "residential": 5203, "severe": 5204, "presidential": 5205, "Mississippi": 5206, "Austin": 5207, "Perhaps": 5208, "Charlotte": 5209, "hanging": 5210, "Montreal": 5211, "grin": 5212, "##ten": 5213, "racial": 5214, "partnership": 5215, "shoot": 5216, "shift": 5217, "##nie": 5218, "Les": 5219, "downtown": 5220, "Brothers": 5221, "Garden": 5222, "matters": 5223, "restored": 5224, "mirror": 5225, "forever": 5226, "winners": 5227, "rapidly": 5228, "poverty": 5229, "##ible": 5230, "Until": 5231, "DC": 5232, "faith": 5233, "hundreds": 5234, "Real": 5235, "Ukraine": 5236, "Nelson": 5237, "balance": 5238, "Adams": 5239, "contest": 5240, "relative": 5241, "ethnic": 5242, "Edinburgh": 5243, "composition": 5244, "##nts": 5245, "emergency": 5246, "##van": 5247, "marine": 5248, "reputation": 5249, "Down": 5250, "pack": 5251, "12th": 5252, "Communist": 5253, "Mountains": 5254, "pro": 5255, "stages": 5256, "measures": 5257, "##ld": 5258, "ABC": 5259, "Li": 5260, "victims": 5261, "benefit": 5262, "Iowa": 5263, "Broadway": 5264, "gathered": 5265, "rating": 5266, "Defense": 5267, "classic": 5268, "##ily": 5269, "ceiling": 5270, "##ions": 5271, "snapped": 5272, "Everything": 5273, "constituency": 5274, "Franklin": 5275, "Thompson": 5276, "Stewart": 5277, "entering": 5278, "Judge": 5279, "forth": 5280, "##sk": 5281, "wanting": 5282, "smiling": 5283, "moves": 5284, "tunnel": 5285, "premiered": 5286, "grass": 5287, "unusual": 5288, "Ukrainian": 5289, "bird": 5290, "Friday": 5291, "tail": 5292, "Portugal": 5293, "coal": 5294, "element": 5295, "Fred": 5296, "guards": 5297, "Senator": 5298, "collaboration": 5299, "beauty": 5300, "Wood": 5301, "chemical": 5302, "beer": 5303, "justice": 5304, "signs": 5305, "##Z": 5306, "sees": 5307, "##zi": 5308, "Puerto": 5309, "##zed": 5310, "96": 5311, "smooth": 5312, "Bowl": 5313, "gift": 5314, "limit": 5315, "97": 5316, "heading": 5317, "Source": 5318, "wake": 5319, "requires": 5320, "Ed": 5321, "Constitution": 5322, "factor": 5323, "Lane": 5324, "factors": 5325, "adding": 5326, "Note": 5327, "cleared": 5328, "pictures": 5329, "pink": 5330, "##ola": 5331, "Kent": 5332, "Local": 5333, "Singh": 5334, "moth": 5335, "Ty": 5336, "##ture": 5337, "courts": 5338, "Seven": 5339, "temporary": 5340, "involving": 5341, "Vienna": 5342, "emerged": 5343, "fishing": 5344, "agree": 5345, "defensive": 5346, "stuck": 5347, "secure": 5348, "Tamil": 5349, "##ick": 5350, "bottle": 5351, "03": 5352, "Player": 5353, "instruments": 5354, "Spring": 5355, "patient": 5356, "flesh": 5357, "contributions": 5358, "cry": 5359, "Malaysia": 5360, "120": 5361, "Global": 5362, "da": 5363, "Alabama": 5364, "Within": 5365, "##work": 5366, "debuted": 5367, "expect": 5368, "Cleveland": 5369, "concerns": 5370, "retained": 5371, "horror": 5372, "10th": 5373, "spending": 5374, "Peace": 5375, "Transport": 5376, "grand": 5377, "Crown": 5378, "instance": 5379, "institution": 5380, "acted": 5381, "Hills": 5382, "mounted": 5383, "Campbell": 5384, "shouldn": 5385, "1898": 5386, "##ably": 5387, "chamber": 5388, "soil": 5389, "88": 5390, "Ethan": 5391, "sand": 5392, "cheeks": 5393, "##gi": 5394, "marry": 5395, "61": 5396, "weekly": 5397, "classification": 5398, "DNA": 5399, "Elementary": 5400, "Roy": 5401, "definitely": 5402, "Soon": 5403, "Rights": 5404, "gate": 5405, "suggests": 5406, "aspects": 5407, "imagine": 5408, "golden": 5409, "beating": 5410, "Studios": 5411, "Warren": 5412, "differences": 5413, "significantly": 5414, "glance": 5415, "occasionally": 5416, "##od": 5417, "clothing": 5418, "Assistant": 5419, "depth": 5420, "sending": 5421, "possibility": 5422, "mode": 5423, "prisoners": 5424, "requirements": 5425, "daughters": 5426, "dated": 5427, "Representatives": 5428, "prove": 5429, "guilty": 5430, "interesting": 5431, "smoke": 5432, "cricket": 5433, "93": 5434, "##ates": 5435, "rescue": 5436, "Connecticut": 5437, "underground": 5438, "Opera": 5439, "13th": 5440, "reign": 5441, "##ski": 5442, "thanks": 5443, "leather": 5444, "equipped": 5445, "routes": 5446, "fan": 5447, "##ans": 5448, "script": 5449, "Wright": 5450, "bishop": 5451, "Welsh": 5452, "jobs": 5453, "faculty": 5454, "eleven": 5455, "Railroad": 5456, "appearing": 5457, "anniversary": 5458, "Upper": 5459, "##down": 5460, "anywhere": 5461, "Rugby": 5462, "Metropolitan": 5463, "Meanwhile": 5464, "Nicholas": 5465, "champions": 5466, "forehead": 5467, "mining": 5468, "drinking": 5469, "76": 5470, "Jerry": 5471, "membership": 5472, "Brazilian": 5473, "Wild": 5474, "Rio": 5475, "scheme": 5476, "Unlike": 5477, "strongly": 5478, "##bility": 5479, "fill": 5480, "##rian": 5481, "easier": 5482, "MP": 5483, "Hell": 5484, "##sha": 5485, "Stanley": 5486, "banks": 5487, "Baron": 5488, "##ique": 5489, "Robinson": 5490, "67": 5491, "Gabriel": 5492, "Austrian": 5493, "Wayne": 5494, "exposed": 5495, "##wan": 5496, "Alfred": 5497, "1899": 5498, "manage": 5499, "mix": 5500, "visitors": 5501, "eating": 5502, "##rate": 5503, "Sean": 5504, "commission": 5505, "Cemetery": 5506, "policies": 5507, "Camp": 5508, "parallel": 5509, "traveled": 5510, "guitarist": 5511, "02": 5512, "supplies": 5513, "couples": 5514, "poem": 5515, "blocks": 5516, "Rick": 5517, "Training": 5518, "Energy": 5519, "achieve": 5520, "appointment": 5521, "Wing": 5522, "Jamie": 5523, "63": 5524, "novels": 5525, "##em": 5526, "1890": 5527, "songwriter": 5528, "Base": 5529, "Jay": 5530, "##gar": 5531, "naval": 5532, "scared": 5533, "miss": 5534, "labor": 5535, "technique": 5536, "crisis": 5537, "Additionally": 5538, "backed": 5539, "destroy": 5540, "seriously": 5541, "tools": 5542, "tennis": 5543, "91": 5544, "god": 5545, "##ington": 5546, "continuing": 5547, "steam": 5548, "obviously": 5549, "Bobby": 5550, "adapted": 5551, "fifty": 5552, "enjoy": 5553, "Jacob": 5554, "publishing": 5555, "column": 5556, "##ular": 5557, "Baltimore": 5558, "Donald": 5559, "Liverpool": 5560, "92": 5561, "drugs": 5562, "movies": 5563, "##ock": 5564, "Heritage": 5565, "##je": 5566, "##istic": 5567, "vocal": 5568, "strategy": 5569, "gene": 5570, "advice": 5571, "##bi": 5572, "Ottoman": 5573, "riding": 5574, "##side": 5575, "Agency": 5576, "Indonesia": 5577, "11th": 5578, "laughing": 5579, "sleeping": 5580, "und": 5581, "muttered": 5582, "listening": 5583, "deck": 5584, "tip": 5585, "77": 5586, "ownership": 5587, "grey": 5588, "Claire": 5589, "deeply": 5590, "provincial": 5591, "popularity": 5592, "Cooper": 5593, "##\u00e1": 5594, "Emily": 5595, "##sed": 5596, "designer": 5597, "Murray": 5598, "describe": 5599, "Danny": 5600, "Around": 5601, "Parker": 5602, "##dae": 5603, "68": 5604, "rates": 5605, "suffering": 5606, "considerable": 5607, "78": 5608, "nervous": 5609, "powered": 5610, "tons": 5611, "circumstances": 5612, "wished": 5613, "belonged": 5614, "Pittsburgh": 5615, "flows": 5616, "9th": 5617, "##use": 5618, "belt": 5619, "81": 5620, "useful": 5621, "15th": 5622, "context": 5623, "List": 5624, "Dead": 5625, "Iron": 5626, "seek": 5627, "Season": 5628, "worn": 5629, "frequency": 5630, "legislation": 5631, "replacement": 5632, "memories": 5633, "Tournament": 5634, "Again": 5635, "Barry": 5636, "organisation": 5637, "copy": 5638, "Gulf": 5639, "waters": 5640, "meets": 5641, "struggle": 5642, "Oliver": 5643, "1895": 5644, "Susan": 5645, "protest": 5646, "kick": 5647, "Alliance": 5648, "components": 5649, "1896": 5650, "Tower": 5651, "Windows": 5652, "demanded": 5653, "regiment": 5654, "sentence": 5655, "Woman": 5656, "Logan": 5657, "Referee": 5658, "hosts": 5659, "debate": 5660, "knee": 5661, "Blood": 5662, "##oo": 5663, "universities": 5664, "practices": 5665, "Ward": 5666, "ranking": 5667, "correct": 5668, "happening": 5669, "Vincent": 5670, "attracted": 5671, "classified": 5672, "##stic": 5673, "processes": 5674, "immediate": 5675, "waste": 5676, "increasingly": 5677, "Helen": 5678, "##po": 5679, "Lucas": 5680, "Phil": 5681, "organ": 5682, "1897": 5683, "tea": 5684, "suicide": 5685, "actors": 5686, "lb": 5687, "crash": 5688, "approval": 5689, "waves": 5690, "##ered": 5691, "hated": 5692, "grip": 5693, "700": 5694, "amongst": 5695, "69": 5696, "74": 5697, "hunting": 5698, "dying": 5699, "lasted": 5700, "illegal": 5701, "##rum": 5702, "stare": 5703, "defeating": 5704, "##gs": 5705, "shrugged": 5706, "\u00b0C": 5707, "Jon": 5708, "Count": 5709, "Orleans": 5710, "94": 5711, "affairs": 5712, "formally": 5713, "##and": 5714, "##ves": 5715, "criticized": 5716, "Disney": 5717, "Vol": 5718, "successor": 5719, "tests": 5720, "scholars": 5721, "palace": 5722, "Would": 5723, "celebrated": 5724, "rounds": 5725, "grant": 5726, "Schools": 5727, "Such": 5728, "commanded": 5729, "demon": 5730, "Romania": 5731, "##all": 5732, "Karl": 5733, "71": 5734, "##yn": 5735, "84": 5736, "Daily": 5737, "totally": 5738, "Medicine": 5739, "fruit": 5740, "Die": 5741, "upset": 5742, "Lower": 5743, "Conservative": 5744, "14th": 5745, "Mitchell": 5746, "escaped": 5747, "shoes": 5748, "Morris": 5749, "##tz": 5750, "queen": 5751, "harder": 5752, "prime": 5753, "Thanks": 5754, "indeed": 5755, "Sky": 5756, "authors": 5757, "rocks": 5758, "definition": 5759, "Nazi": 5760, "accounts": 5761, "printed": 5762, "experiences": 5763, "##ters": 5764, "divisions": 5765, "Cathedral": 5766, "denied": 5767, "depending": 5768, "Express": 5769, "##let": 5770, "73": 5771, "appeal": 5772, "loose": 5773, "colors": 5774, "filed": 5775, "##isation": 5776, "gender": 5777, "##ew": 5778, "throne": 5779, "forests": 5780, "Finland": 5781, "domain": 5782, "boats": 5783, "Baker": 5784, "squadron": 5785, "shore": 5786, "remove": 5787, "##ification": 5788, "careful": 5789, "wound": 5790, "railroad": 5791, "82": 5792, "seeking": 5793, "agents": 5794, "##ved": 5795, "Blues": 5796, "##off": 5797, "customers": 5798, "ignored": 5799, "net": 5800, "##ction": 5801, "hiding": 5802, "Originally": 5803, "declined": 5804, "##ess": 5805, "franchise": 5806, "eliminated": 5807, "NBA": 5808, "merely": 5809, "pure": 5810, "appropriate": 5811, "visiting": 5812, "forty": 5813, "markets": 5814, "offensive": 5815, "coverage": 5816, "cave": 5817, "##nia": 5818, "spell": 5819, "##lar": 5820, "Benjamin": 5821, "##ire": 5822, "Convention": 5823, "filmed": 5824, "Trade": 5825, "##sy": 5826, "##ct": 5827, "Having": 5828, "palm": 5829, "1889": 5830, "Evans": 5831, "intense": 5832, "plastic": 5833, "Julia": 5834, "document": 5835, "jeans": 5836, "vessel": 5837, "SR": 5838, "##fully": 5839, "proposal": 5840, "Birmingham": 5841, "le": 5842, "##ative": 5843, "assembly": 5844, "89": 5845, "fund": 5846, "lock": 5847, "1893": 5848, "AD": 5849, "meetings": 5850, "occupation": 5851, "modified": 5852, "Years": 5853, "odd": 5854, "aimed": 5855, "reform": 5856, "Mission": 5857, "Works": 5858, "shake": 5859, "cat": 5860, "exception": 5861, "convinced": 5862, "executed": 5863, "pushing": 5864, "dollars": 5865, "replacing": 5866, "soccer": 5867, "manufacturing": 5868, "##ros": 5869, "expensive": 5870, "kicked": 5871, "minimum": 5872, "Josh": 5873, "coastal": 5874, "Chase": 5875, "ha": 5876, "Thailand": 5877, "publications": 5878, "deputy": 5879, "Sometimes": 5880, "Angel": 5881, "effectively": 5882, "##illa": 5883, "criticism": 5884, "conduct": 5885, "Serbian": 5886, "landscape": 5887, "NY": 5888, "absence": 5889, "passage": 5890, "##ula": 5891, "Blake": 5892, "Indians": 5893, "1892": 5894, "admit": 5895, "Trophy": 5896, "##ball": 5897, "Next": 5898, "##rated": 5899, "##ians": 5900, "charts": 5901, "kW": 5902, "orchestra": 5903, "79": 5904, "heritage": 5905, "1894": 5906, "rough": 5907, "exists": 5908, "boundary": 5909, "Bible": 5910, "Legislative": 5911, "moon": 5912, "medieval": 5913, "##over": 5914, "cutting": 5915, "print": 5916, "##ett": 5917, "birthday": 5918, "##hood": 5919, "destruction": 5920, "Julian": 5921, "injuries": 5922, "influential": 5923, "sisters": 5924, "raising": 5925, "statue": 5926, "colour": 5927, "dancing": 5928, "characteristics": 5929, "orange": 5930, "##ok": 5931, "##aries": 5932, "Ken": 5933, "colonial": 5934, "twin": 5935, "Larry": 5936, "surviving": 5937, "##shi": 5938, "Barbara": 5939, "personality": 5940, "entertainment": 5941, "assault": 5942, "##ering": 5943, "talent": 5944, "happens": 5945, "license": 5946, "86": 5947, "couch": 5948, "Century": 5949, "soundtrack": 5950, "shower": 5951, "swimming": 5952, "cash": 5953, "Staff": 5954, "bent": 5955, "1885": 5956, "bay": 5957, "lunch": 5958, "##lus": 5959, "dozen": 5960, "vessels": 5961, "CBS": 5962, "greatly": 5963, "critic": 5964, "Test": 5965, "symbol": 5966, "panel": 5967, "shell": 5968, "output": 5969, "reaches": 5970, "87": 5971, "Front": 5972, "motor": 5973, "ocean": 5974, "##era": 5975, "##ala": 5976, "maintenance": 5977, "violent": 5978, "scent": 5979, "Limited": 5980, "Las": 5981, "Hope": 5982, "Theater": 5983, "Which": 5984, "survey": 5985, "Robin": 5986, "recordings": 5987, "compilation": 5988, "##ward": 5989, "bomb": 5990, "insurance": 5991, "Authority": 5992, "sponsored": 5993, "satellite": 5994, "Jazz": 5995, "refer": 5996, "stronger": 5997, "blow": 5998, "whilst": 5999, "Wrestling": 6000, "suggest": 6001, "##rie": 6002, "climbed": 6003, "##els": 6004, "voices": 6005, "shopping": 6006, "1891": 6007, "Neil": 6008, "discovery": 6009, "##vo": 6010, "##ations": 6011, "burst": 6012, "Baby": 6013, "peaked": 6014, "Brooklyn": 6015, "knocked": 6016, "lift": 6017, "##try": 6018, "false": 6019, "nations": 6020, "Hugh": 6021, "Catherine": 6022, "preserved": 6023, "distinguished": 6024, "terminal": 6025, "resolution": 6026, "ratio": 6027, "pants": 6028, "cited": 6029, "competitions": 6030, "completion": 6031, "DJ": 6032, "bone": 6033, "uniform": 6034, "schedule": 6035, "shouted": 6036, "83": 6037, "1920s": 6038, "rarely": 6039, "Basketball": 6040, "Taiwan": 6041, "artistic": 6042, "bare": 6043, "vampires": 6044, "arrest": 6045, "Utah": 6046, "Marcus": 6047, "assist": 6048, "gradually": 6049, "qualifying": 6050, "Victorian": 6051, "vast": 6052, "rival": 6053, "Warner": 6054, "Terry": 6055, "Economic": 6056, "##cia": 6057, "losses": 6058, "boss": 6059, "versus": 6060, "audio": 6061, "runner": 6062, "apply": 6063, "surgery": 6064, "Play": 6065, "twisted": 6066, "comfortable": 6067, "##cs": 6068, "Everyone": 6069, "guests": 6070, "##lt": 6071, "Harrison": 6072, "UEFA": 6073, "lowered": 6074, "occasions": 6075, "##lly": 6076, "##cher": 6077, "chapter": 6078, "youngest": 6079, "eighth": 6080, "Culture": 6081, "##room": 6082, "##stone": 6083, "1888": 6084, "Songs": 6085, "Seth": 6086, "Digital": 6087, "involvement": 6088, "expedition": 6089, "relationships": 6090, "signing": 6091, "1000": 6092, "fault": 6093, "annually": 6094, "circuit": 6095, "afterwards": 6096, "meat": 6097, "creature": 6098, "##ou": 6099, "cable": 6100, "Bush": 6101, "##net": 6102, "Hispanic": 6103, "rapid": 6104, "gonna": 6105, "figured": 6106, "extent": 6107, "considering": 6108, "cried": 6109, "##tin": 6110, "sigh": 6111, "dynasty": 6112, "##ration": 6113, "cabinet": 6114, "Richmond": 6115, "stable": 6116, "##zo": 6117, "1864": 6118, "Admiral": 6119, "Unit": 6120, "occasion": 6121, "shares": 6122, "badly": 6123, "longest": 6124, "##ify": 6125, "Connor": 6126, "extreme": 6127, "wondering": 6128, "girlfriend": 6129, "Studio": 6130, "##tions": 6131, "1865": 6132, "tribe": 6133, "exact": 6134, "muscles": 6135, "hat": 6136, "Luis": 6137, "Orthodox": 6138, "decisions": 6139, "amateur": 6140, "description": 6141, "##lis": 6142, "hips": 6143, "kingdom": 6144, "##ute": 6145, "Portland": 6146, "whereas": 6147, "Bachelor": 6148, "outer": 6149, "discussion": 6150, "partly": 6151, "Arkansas": 6152, "1880": 6153, "dreams": 6154, "perfectly": 6155, "Lloyd": 6156, "##bridge": 6157, "asleep": 6158, "##tti": 6159, "Greg": 6160, "permission": 6161, "trading": 6162, "pitch": 6163, "mill": 6164, "Stage": 6165, "liquid": 6166, "Keith": 6167, "##tal": 6168, "wolf": 6169, "processing": 6170, "stick": 6171, "Jerusalem": 6172, "profile": 6173, "rushed": 6174, "spiritual": 6175, "argument": 6176, "Ice": 6177, "Guy": 6178, "till": 6179, "Delhi": 6180, "roots": 6181, "Section": 6182, "missions": 6183, "Glasgow": 6184, "penalty": 6185, "NBC": 6186, "encouraged": 6187, "identify": 6188, "keyboards": 6189, "##zing": 6190, "##ston": 6191, "disc": 6192, "plain": 6193, "informed": 6194, "Bernard": 6195, "thinks": 6196, "fled": 6197, "Justin": 6198, "##day": 6199, "newspapers": 6200, "##wick": 6201, "Ralph": 6202, "##zer": 6203, "unlike": 6204, "Stars": 6205, "artillery": 6206, "##ified": 6207, "recovered": 6208, "arrangement": 6209, "searching": 6210, "##pers": 6211, "##tory": 6212, "##rus": 6213, "deaths": 6214, "Egyptian": 6215, "diameter": 6216, "##\u00ed": 6217, "marketing": 6218, "corporate": 6219, "teach": 6220, "marks": 6221, "Turner": 6222, "staying": 6223, "hallway": 6224, "Sebastian": 6225, "chapel": 6226, "naked": 6227, "mistake": 6228, "possession": 6229, "1887": 6230, "dominated": 6231, "jacket": 6232, "creative": 6233, "Fellow": 6234, "Falls": 6235, "Defence": 6236, "suspended": 6237, "employment": 6238, "##rry": 6239, "Hebrew": 6240, "Hudson": 6241, "Week": 6242, "Wars": 6243, "recognize": 6244, "Natural": 6245, "controversial": 6246, "Tommy": 6247, "thank": 6248, "Athletic": 6249, "benefits": 6250, "decline": 6251, "intention": 6252, "##ets": 6253, "Lost": 6254, "Wall": 6255, "participation": 6256, "elevation": 6257, "supports": 6258, "parliament": 6259, "1861": 6260, "concentration": 6261, "Movement": 6262, "##IS": 6263, "competing": 6264, "stops": 6265, "behalf": 6266, "##mm": 6267, "limits": 6268, "funded": 6269, "discuss": 6270, "Collins": 6271, "departure": 6272, "obtain": 6273, "woods": 6274, "latest": 6275, "universe": 6276, "alcohol": 6277, "Laura": 6278, "rush": 6279, "blade": 6280, "funny": 6281, "Dennis": 6282, "forgotten": 6283, "Amy": 6284, "Symphony": 6285, "apparent": 6286, "graduating": 6287, "1862": 6288, "Rob": 6289, "Grey": 6290, "collections": 6291, "Mason": 6292, "emotions": 6293, "##ugh": 6294, "literally": 6295, "Any": 6296, "counties": 6297, "1863": 6298, "nomination": 6299, "fighter": 6300, "habitat": 6301, "respond": 6302, "external": 6303, "Capital": 6304, "exit": 6305, "Video": 6306, "carbon": 6307, "sharing": 6308, "Bad": 6309, "opportunities": 6310, "Perry": 6311, "photo": 6312, "##mus": 6313, "Orange": 6314, "posted": 6315, "remainder": 6316, "transportation": 6317, "portrayed": 6318, "Labor": 6319, "recommended": 6320, "percussion": 6321, "rated": 6322, "Grade": 6323, "rivers": 6324, "partially": 6325, "suspected": 6326, "strip": 6327, "adults": 6328, "button": 6329, "struggled": 6330, "intersection": 6331, "Canal": 6332, "##ability": 6333, "poems": 6334, "claiming": 6335, "Madrid": 6336, "1886": 6337, "Together": 6338, "##our": 6339, "Much": 6340, "Vancouver": 6341, "instrument": 6342, "instrumental": 6343, "1870": 6344, "mad": 6345, "angle": 6346, "Control": 6347, "Phoenix": 6348, "Leo": 6349, "Communications": 6350, "mail": 6351, "##ette": 6352, "##ev": 6353, "preferred": 6354, "adaptation": 6355, "alleged": 6356, "discussed": 6357, "deeper": 6358, "##ane": 6359, "Yet": 6360, "Monday": 6361, "volumes": 6362, "thrown": 6363, "Zane": 6364, "##logy": 6365, "displayed": 6366, "rolling": 6367, "dogs": 6368, "Along": 6369, "Todd": 6370, "##ivity": 6371, "withdrew": 6372, "representation": 6373, "belief": 6374, "##sia": 6375, "crown": 6376, "Late": 6377, "Short": 6378, "hardly": 6379, "grinned": 6380, "romantic": 6381, "Pete": 6382, "##ken": 6383, "networks": 6384, "enemies": 6385, "Colin": 6386, "Eventually": 6387, "Side": 6388, "donated": 6389, "##su": 6390, "steady": 6391, "grab": 6392, "guide": 6393, "Finnish": 6394, "Milan": 6395, "pregnant": 6396, "controversy": 6397, "reminded": 6398, "1884": 6399, "Stuart": 6400, "##bach": 6401, "##ade": 6402, "Race": 6403, "Belgian": 6404, "LP": 6405, "Production": 6406, "Zone": 6407, "lieutenant": 6408, "infantry": 6409, "Child": 6410, "confusion": 6411, "sang": 6412, "resident": 6413, "##ez": 6414, "victim": 6415, "1881": 6416, "channels": 6417, "Ron": 6418, "businessman": 6419, "##gle": 6420, "Dick": 6421, "colony": 6422, "pace": 6423, "producers": 6424, "##ese": 6425, "agencies": 6426, "Craig": 6427, "Lucy": 6428, "Very": 6429, "centers": 6430, "Yorkshire": 6431, "photography": 6432, "##ched": 6433, "Album": 6434, "championships": 6435, "Metro": 6436, "substantial": 6437, "Standard": 6438, "terrible": 6439, "directors": 6440, "contribution": 6441, "advertising": 6442, "emotional": 6443, "##its": 6444, "layer": 6445, "segment": 6446, "sir": 6447, "folded": 6448, "Roberts": 6449, "ceased": 6450, "Hampshire": 6451, "##ray": 6452, "detailed": 6453, "partners": 6454, "m\u00b2": 6455, "##pt": 6456, "Beth": 6457, "genre": 6458, "commented": 6459, "generated": 6460, "remote": 6461, "aim": 6462, "Hans": 6463, "credits": 6464, "concerts": 6465, "periods": 6466, "breakfast": 6467, "gay": 6468, "shadow": 6469, "defence": 6470, "Too": 6471, "Had": 6472, "transition": 6473, "Afghanistan": 6474, "##book": 6475, "eggs": 6476, "defend": 6477, "##lli": 6478, "writes": 6479, "Systems": 6480, "bones": 6481, "mess": 6482, "seed": 6483, "scientists": 6484, "Shortly": 6485, "Romanian": 6486, "##zy": 6487, "Freedom": 6488, "muscle": 6489, "hero": 6490, "parent": 6491, "agriculture": 6492, "checked": 6493, "Islam": 6494, "Bristol": 6495, "Freyja": 6496, "Arena": 6497, "cabin": 6498, "Germans": 6499, "electricity": 6500, "ranks": 6501, "viewed": 6502, "medals": 6503, "Wolf": 6504, "associate": 6505, "Madison": 6506, "Sorry": 6507, "fort": 6508, "Chile": 6509, "detail": 6510, "widespread": 6511, "attorney": 6512, "boyfriend": 6513, "##nan": 6514, "Students": 6515, "Spencer": 6516, "##ig": 6517, "bite": 6518, "Maine": 6519, "demolished": 6520, "Lisa": 6521, "erected": 6522, "Someone": 6523, "operational": 6524, "Commissioner": 6525, "NHL": 6526, "Coach": 6527, "Bar": 6528, "forcing": 6529, "Dream": 6530, "Rico": 6531, "cargo": 6532, "Murphy": 6533, "##fish": 6534, "##ase": 6535, "distant": 6536, "##master": 6537, "##ora": 6538, "Organization": 6539, "doorway": 6540, "Steven": 6541, "traded": 6542, "electrical": 6543, "frequent": 6544, "##wn": 6545, "Branch": 6546, "Sure": 6547, "1882": 6548, "placing": 6549, "Manhattan": 6550, "attending": 6551, "attributed": 6552, "excellent": 6553, "pounds": 6554, "ruling": 6555, "principles": 6556, "component": 6557, "Mediterranean": 6558, "Vegas": 6559, "machines": 6560, "percentage": 6561, "infrastructure": 6562, "throwing": 6563, "affiliated": 6564, "Kings": 6565, "secured": 6566, "Caribbean": 6567, "Track": 6568, "Ted": 6569, "honour": 6570, "opponent": 6571, "Virgin": 6572, "Construction": 6573, "grave": 6574, "produces": 6575, "Challenge": 6576, "stretched": 6577, "paying": 6578, "murmured": 6579, "##ata": 6580, "integrated": 6581, "waved": 6582, "Nathan": 6583, "##ator": 6584, "transmission": 6585, "videos": 6586, "##yan": 6587, "##hu": 6588, "Nova": 6589, "descent": 6590, "AM": 6591, "Harold": 6592, "conservative": 6593, "Therefore": 6594, "venue": 6595, "competitive": 6596, "##ui": 6597, "conclusion": 6598, "funeral": 6599, "confidence": 6600, "releases": 6601, "scholar": 6602, "##sson": 6603, "Treaty": 6604, "stress": 6605, "mood": 6606, "##sm": 6607, "Mac": 6608, "residing": 6609, "Action": 6610, "Fund": 6611, "##ship": 6612, "animated": 6613, "fitted": 6614, "##kar": 6615, "defending": 6616, "voting": 6617, "tend": 6618, "##berry": 6619, "answers": 6620, "believes": 6621, "##ci": 6622, "helps": 6623, "Aaron": 6624, "##tis": 6625, "themes": 6626, "##lay": 6627, "populations": 6628, "Players": 6629, "stroke": 6630, "Trinity": 6631, "electoral": 6632, "paint": 6633, "abroad": 6634, "charity": 6635, "keys": 6636, "Fair": 6637, "##pes": 6638, "interrupted": 6639, "participants": 6640, "murdered": 6641, "Days": 6642, "supporters": 6643, "##ab": 6644, "expert": 6645, "borders": 6646, "mate": 6647, "##llo": 6648, "solar": 6649, "architectural": 6650, "tension": 6651, "##bling": 6652, "Parish": 6653, "tape": 6654, "operator": 6655, "Cultural": 6656, "Clinton": 6657, "indicates": 6658, "publisher": 6659, "ordinary": 6660, "sugar": 6661, "arrive": 6662, "rifle": 6663, "acoustic": 6664, "##uring": 6665, "assets": 6666, "##shire": 6667, "SS": 6668, "sufficient": 6669, "options": 6670, "HMS": 6671, "Classic": 6672, "bars": 6673, "rebuilt": 6674, "governments": 6675, "Beijing": 6676, "reporter": 6677, "screamed": 6678, "Abbey": 6679, "crying": 6680, "mechanical": 6681, "instantly": 6682, "communications": 6683, "Political": 6684, "cemetery": 6685, "Cameron": 6686, "Stop": 6687, "representatives": 6688, "USS": 6689, "texts": 6690, "mathematics": 6691, "innings": 6692, "civilian": 6693, "Serbia": 6694, "##hill": 6695, "practical": 6696, "patterns": 6697, "dust": 6698, "Faculty": 6699, "debt": 6700, "##end": 6701, "##cus": 6702, "junction": 6703, "suppose": 6704, "experimental": 6705, "Computer": 6706, "Food": 6707, "wrist": 6708, "abuse": 6709, "dealing": 6710, "bigger": 6711, "cap": 6712, "principle": 6713, "##pin": 6714, "Muhammad": 6715, "Fleet": 6716, "Collection": 6717, "attempting": 6718, "dismissed": 6719, "##burn": 6720, "regime": 6721, "Herbert": 6722, "##ua": 6723, "shadows": 6724, "1883": 6725, "Eve": 6726, "Lanka": 6727, "1878": 6728, "Performance": 6729, "fictional": 6730, "##lock": 6731, "Noah": 6732, "Run": 6733, "Voivodeship": 6734, "exercise": 6735, "broadcasting": 6736, "##fer": 6737, "RAF": 6738, "Magic": 6739, "Bangladesh": 6740, "suitable": 6741, "##low": 6742, "##del": 6743, "styles": 6744, "toured": 6745, "Code": 6746, "identical": 6747, "links": 6748, "insisted": 6749, "110": 6750, "flash": 6751, "Model": 6752, "slave": 6753, "Derek": 6754, "Rev": 6755, "fairly": 6756, "Greater": 6757, "sole": 6758, "##lands": 6759, "connecting": 6760, "zero": 6761, "bench": 6762, "##ome": 6763, "switched": 6764, "Fall": 6765, "Owen": 6766, "yours": 6767, "Electric": 6768, "shocked": 6769, "convention": 6770, "##bra": 6771, "climb": 6772, "memorial": 6773, "swept": 6774, "Racing": 6775, "decides": 6776, "belong": 6777, "##nk": 6778, "parliamentary": 6779, "##und": 6780, "ages": 6781, "proof": 6782, "##dan": 6783, "delivery": 6784, "1860": 6785, "##\u00f3w": 6786, "sad": 6787, "publicly": 6788, "leaning": 6789, "Archbishop": 6790, "dirt": 6791, "##ose": 6792, "categories": 6793, "1876": 6794, "burn": 6795, "##bing": 6796, "requested": 6797, "Guinea": 6798, "Historical": 6799, "rhythm": 6800, "relation": 6801, "##heim": 6802, "ye": 6803, "pursue": 6804, "merchant": 6805, "##mes": 6806, "lists": 6807, "continuous": 6808, "frowned": 6809, "colored": 6810, "tool": 6811, "gods": 6812, "involves": 6813, "Duncan": 6814, "photographs": 6815, "Cricket": 6816, "slight": 6817, "Gregory": 6818, "atmosphere": 6819, "wider": 6820, "Cook": 6821, "##tar": 6822, "essential": 6823, "Being": 6824, "FA": 6825, "emperor": 6826, "wealthy": 6827, "nights": 6828, "##bar": 6829, "licensed": 6830, "Hawaii": 6831, "viewers": 6832, "Language": 6833, "load": 6834, "nearest": 6835, "milk": 6836, "kilometers": 6837, "platforms": 6838, "##ys": 6839, "territories": 6840, "Rogers": 6841, "sheet": 6842, "Rangers": 6843, "contested": 6844, "##lation": 6845, "isolated": 6846, "assisted": 6847, "swallowed": 6848, "Small": 6849, "Contemporary": 6850, "Technical": 6851, "Edwards": 6852, "express": 6853, "Volume": 6854, "endemic": 6855, "##ei": 6856, "tightly": 6857, "Whatever": 6858, "indigenous": 6859, "Colombia": 6860, "##ulation": 6861, "hp": 6862, "characterized": 6863, "##ida": 6864, "Nigeria": 6865, "Professional": 6866, "duo": 6867, "Soccer": 6868, "slaves": 6869, "Farm": 6870, "smart": 6871, "Attorney": 6872, "Attendance": 6873, "Common": 6874, "salt": 6875, "##vin": 6876, "tribes": 6877, "nod": 6878, "sentenced": 6879, "bid": 6880, "sample": 6881, "Drive": 6882, "switch": 6883, "instant": 6884, "21st": 6885, "Cuba": 6886, "drunk": 6887, "Alaska": 6888, "proud": 6889, "awareness": 6890, "hitting": 6891, "sessions": 6892, "Thai": 6893, "locally": 6894, "elsewhere": 6895, "Dragon": 6896, "gentle": 6897, "touching": 6898, "##lee": 6899, "Springs": 6900, "Universal": 6901, "Latino": 6902, "spin": 6903, "1871": 6904, "Chart": 6905, "recalled": 6906, "Type": 6907, "pointing": 6908, "##ii": 6909, "lowest": 6910, "##ser": 6911, "grandmother": 6912, "Adelaide": 6913, "Jacques": 6914, "spotted": 6915, "Buffalo": 6916, "restoration": 6917, "Son": 6918, "Joan": 6919, "farmers": 6920, "Lily": 6921, "1879": 6922, "lucky": 6923, "##dal": 6924, "luck": 6925, "eldest": 6926, "##rant": 6927, "Market": 6928, "drummer": 6929, "deployed": 6930, "warned": 6931, "prince": 6932, "sing": 6933, "amazing": 6934, "sailed": 6935, "##oon": 6936, "1875": 6937, "Primary": 6938, "traveling": 6939, "Masters": 6940, "Sara": 6941, "cattle": 6942, "Trail": 6943, "gang": 6944, "Further": 6945, "desert": 6946, "relocated": 6947, "##tch": 6948, "##ord": 6949, "Flight": 6950, "illness": 6951, "Munich": 6952, "ninth": 6953, "repair": 6954, "Singles": 6955, "##lated": 6956, "Tyler": 6957, "tossed": 6958, "boots": 6959, "Work": 6960, "sized": 6961, "earning": 6962, "shoved": 6963, "magazines": 6964, "housed": 6965, "dam": 6966, "researchers": 6967, "Former": 6968, "spun": 6969, "premiere": 6970, "spaces": 6971, "organised": 6972, "wealth": 6973, "crimes": 6974, "devoted": 6975, "stones": 6976, "Urban": 6977, "automatic": 6978, "hop": 6979, "affect": 6980, "outstanding": 6981, "tanks": 6982, "mechanism": 6983, "Muslims": 6984, "Ms": 6985, "shots": 6986, "argue": 6987, "Jeremy": 6988, "connections": 6989, "Armenian": 6990, "increases": 6991, "rubbed": 6992, "1867": 6993, "retail": 6994, "gear": 6995, "Pan": 6996, "bonus": 6997, "jurisdiction": 6998, "weird": 6999, "concerning": 7000, "whisper": 7001, "##gal": 7002, "Microsoft": 7003, "tenure": 7004, "hills": 7005, "www": 7006, "Gmina": 7007, "porch": 7008, "files": 7009, "reportedly": 7010, "venture": 7011, "Storm": 7012, "##ence": 7013, "Nature": 7014, "killer": 7015, "panic": 7016, "fate": 7017, "Secret": 7018, "Wang": 7019, "scream": 7020, "drivers": 7021, "belongs": 7022, "Chamber": 7023, "clan": 7024, "monument": 7025, "mixing": 7026, "Peru": 7027, "bet": 7028, "Riley": 7029, "Friends": 7030, "Isaac": 7031, "submarine": 7032, "1877": 7033, "130": 7034, "judges": 7035, "harm": 7036, "ranging": 7037, "affair": 7038, "prepare": 7039, "pupils": 7040, "householder": 7041, "Policy": 7042, "decorated": 7043, "Nation": 7044, "slammed": 7045, "activist": 7046, "implemented": 7047, "Room": 7048, "qualify": 7049, "Publishing": 7050, "establishing": 7051, "Baptist": 7052, "touring": 7053, "subsidiary": 7054, "##nal": 7055, "legend": 7056, "1872": 7057, "laughter": 7058, "PC": 7059, "Athens": 7060, "settlers": 7061, "ties": 7062, "dual": 7063, "dear": 7064, "Draft": 7065, "strategic": 7066, "Ivan": 7067, "reveal": 7068, "closest": 7069, "dominant": 7070, "Ah": 7071, "##ult": 7072, "Denver": 7073, "bond": 7074, "boundaries": 7075, "drafted": 7076, "tables": 7077, "##TV": 7078, "eyed": 7079, "Edition": 7080, "##ena": 7081, "1868": 7082, "belonging": 7083, "1874": 7084, "Industrial": 7085, "cream": 7086, "Ridge": 7087, "Hindu": 7088, "scholarship": 7089, "Ma": 7090, "opens": 7091, "initiated": 7092, "##ith": 7093, "yelled": 7094, "compound": 7095, "random": 7096, "Throughout": 7097, "grades": 7098, "physics": 7099, "sank": 7100, "grows": 7101, "exclusively": 7102, "settle": 7103, "Saints": 7104, "brings": 7105, "Amsterdam": 7106, "Make": 7107, "Hart": 7108, "walks": 7109, "battery": 7110, "violin": 7111, "##born": 7112, "explanation": 7113, "##ware": 7114, "1873": 7115, "##har": 7116, "provinces": 7117, "thrust": 7118, "exclusive": 7119, "sculpture": 7120, "shops": 7121, "##fire": 7122, "VI": 7123, "constitution": 7124, "Barcelona": 7125, "monster": 7126, "Devon": 7127, "Jefferson": 7128, "Sullivan": 7129, "bow": 7130, "##din": 7131, "desperate": 7132, "##\u0107": 7133, "Julie": 7134, "##mon": 7135, "##ising": 7136, "terminus": 7137, "Jesse": 7138, "abilities": 7139, "golf": 7140, "##ple": 7141, "##via": 7142, "##away": 7143, "Raymond": 7144, "measured": 7145, "jury": 7146, "firing": 7147, "revenue": 7148, "suburb": 7149, "Bulgarian": 7150, "1866": 7151, "##cha": 7152, "timber": 7153, "Things": 7154, "##weight": 7155, "Morning": 7156, "spots": 7157, "Alberta": 7158, "Data": 7159, "explains": 7160, "Kyle": 7161, "friendship": 7162, "raw": 7163, "tube": 7164, "demonstrated": 7165, "aboard": 7166, "immigrants": 7167, "reply": 7168, "breathe": 7169, "Manager": 7170, "ease": 7171, "##ban": 7172, "##dia": 7173, "Diocese": 7174, "##vy": 7175, "##\u00eda": 7176, "pit": 7177, "ongoing": 7178, "##lie": 7179, "Gilbert": 7180, "Costa": 7181, "1940s": 7182, "Report": 7183, "voters": 7184, "cloud": 7185, "traditions": 7186, "##MS": 7187, "gallery": 7188, "Jennifer": 7189, "swung": 7190, "Broadcasting": 7191, "Does": 7192, "diverse": 7193, "reveals": 7194, "arriving": 7195, "initiative": 7196, "##ani": 7197, "Give": 7198, "Allied": 7199, "Pat": 7200, "Outstanding": 7201, "monastery": 7202, "blind": 7203, "Currently": 7204, "##war": 7205, "bloody": 7206, "stopping": 7207, "focuses": 7208, "managing": 7209, "Florence": 7210, "Harvey": 7211, "creatures": 7212, "900": 7213, "breast": 7214, "internet": 7215, "Artillery": 7216, "purple": 7217, "##mate": 7218, "alliance": 7219, "excited": 7220, "fee": 7221, "Brisbane": 7222, "lifetime": 7223, "Private": 7224, "##aw": 7225, "##nis": 7226, "##gue": 7227, "##ika": 7228, "phrase": 7229, "regulations": 7230, "reflected": 7231, "manufactured": 7232, "conventional": 7233, "pleased": 7234, "client": 7235, "##ix": 7236, "##ncy": 7237, "Pedro": 7238, "reduction": 7239, "##con": 7240, "welcome": 7241, "jail": 7242, "comfort": 7243, "Iranian": 7244, "Norfolk": 7245, "Dakota": 7246, "##tein": 7247, "evolution": 7248, "everywhere": 7249, "Initially": 7250, "sensitive": 7251, "Olivia": 7252, "Oscar": 7253, "implementation": 7254, "sits": 7255, "stolen": 7256, "demands": 7257, "slide": 7258, "grandson": 7259, "##ich": 7260, "merger": 7261, "##mic": 7262, "Spirit": 7263, "##\u00b0": 7264, "ticket": 7265, "root": 7266, "difficulty": 7267, "Nevada": 7268, "##als": 7269, "lined": 7270, "Dylan": 7271, "Original": 7272, "Call": 7273, "biological": 7274, "EU": 7275, "dramatic": 7276, "##hn": 7277, "Operations": 7278, "treaty": 7279, "gap": 7280, "##list": 7281, "Am": 7282, "Romanized": 7283, "moral": 7284, "Butler": 7285, "perspective": 7286, "Furthermore": 7287, "Manuel": 7288, "absolutely": 7289, "unsuccessful": 7290, "disaster": 7291, "dispute": 7292, "preparation": 7293, "tested": 7294, "discover": 7295, "##ach": 7296, "shield": 7297, "squeezed": 7298, "brushed": 7299, "battalion": 7300, "Arnold": 7301, "##ras": 7302, "superior": 7303, "treat": 7304, "clinical": 7305, "##so": 7306, "Apple": 7307, "Syria": 7308, "Cincinnati": 7309, "package": 7310, "flights": 7311, "editions": 7312, "Leader": 7313, "minority": 7314, "wonderful": 7315, "hang": 7316, "Pop": 7317, "Philippine": 7318, "telephone": 7319, "bell": 7320, "honorary": 7321, "##mar": 7322, "balls": 7323, "Democrat": 7324, "dirty": 7325, "thereafter": 7326, "collapsed": 7327, "Inside": 7328, "slip": 7329, "wrestling": 7330, "##\u00edn": 7331, "listened": 7332, "regard": 7333, "bowl": 7334, "None": 7335, "Sport": 7336, "completing": 7337, "trapped": 7338, "##view": 7339, "copper": 7340, "Wallace": 7341, "Honor": 7342, "blame": 7343, "Peninsula": 7344, "##ert": 7345, "##oy": 7346, "Anglo": 7347, "bearing": 7348, "simultaneously": 7349, "honest": 7350, "##ias": 7351, "Mix": 7352, "Got": 7353, "speaker": 7354, "voiced": 7355, "impressed": 7356, "prices": 7357, "error": 7358, "1869": 7359, "##feld": 7360, "trials": 7361, "Nine": 7362, "Industry": 7363, "substitute": 7364, "Municipal": 7365, "departed": 7366, "slept": 7367, "##ama": 7368, "Junction": 7369, "Socialist": 7370, "flower": 7371, "dropping": 7372, "comment": 7373, "fantasy": 7374, "##ress": 7375, "arrangements": 7376, "travelled": 7377, "furniture": 7378, "fist": 7379, "relieved": 7380, "##tics": 7381, "Leonard": 7382, "linear": 7383, "earn": 7384, "expand": 7385, "Soul": 7386, "Plan": 7387, "Leeds": 7388, "Sierra": 7389, "accessible": 7390, "innocent": 7391, "Winner": 7392, "Fighter": 7393, "Range": 7394, "winds": 7395, "vertical": 7396, "Pictures": 7397, "101": 7398, "charter": 7399, "cooperation": 7400, "prisoner": 7401, "interviews": 7402, "recognised": 7403, "sung": 7404, "manufacturer": 7405, "exposure": 7406, "submitted": 7407, "Mars": 7408, "leaf": 7409, "gauge": 7410, "screaming": 7411, "likes": 7412, "eligible": 7413, "##ac": 7414, "gathering": 7415, "columns": 7416, "##dra": 7417, "belly": 7418, "UN": 7419, "maps": 7420, "messages": 7421, "speakers": 7422, "##ants": 7423, "garage": 7424, "unincorporated": 7425, "Number": 7426, "Watson": 7427, "sixteen": 7428, "lots": 7429, "beaten": 7430, "Could": 7431, "Municipality": 7432, "##ano": 7433, "Horse": 7434, "talks": 7435, "Drake": 7436, "scores": 7437, "Venice": 7438, "genetic": 7439, "##mal": 7440, "##\u00e8re": 7441, "Cold": 7442, "Jose": 7443, "nurse": 7444, "traditionally": 7445, "##bus": 7446, "Territory": 7447, "Key": 7448, "Nancy": 7449, "##win": 7450, "thumb": 7451, "S\u00e3o": 7452, "index": 7453, "dependent": 7454, "carries": 7455, "controls": 7456, "Comics": 7457, "coalition": 7458, "physician": 7459, "referring": 7460, "Ruth": 7461, "Based": 7462, "restricted": 7463, "inherited": 7464, "internationally": 7465, "stretch": 7466, "THE": 7467, "plates": 7468, "margin": 7469, "Holland": 7470, "knock": 7471, "significance": 7472, "valuable": 7473, "Kenya": 7474, "carved": 7475, "emotion": 7476, "conservation": 7477, "municipalities": 7478, "overseas": 7479, "resumed": 7480, "Finance": 7481, "graduation": 7482, "blinked": 7483, "temperatures": 7484, "constantly": 7485, "productions": 7486, "scientist": 7487, "ghost": 7488, "cuts": 7489, "permitted": 7490, "##ches": 7491, "firmly": 7492, "##bert": 7493, "patrol": 7494, "##yo": 7495, "Croatian": 7496, "attacking": 7497, "1850": 7498, "portrait": 7499, "promoting": 7500, "sink": 7501, "conversion": 7502, "##kov": 7503, "locomotives": 7504, "Guide": 7505, "##val": 7506, "nephew": 7507, "relevant": 7508, "Marc": 7509, "drum": 7510, "originated": 7511, "Chair": 7512, "visits": 7513, "dragged": 7514, "Price": 7515, "favour": 7516, "corridor": 7517, "properly": 7518, "respective": 7519, "Caroline": 7520, "reporting": 7521, "inaugural": 7522, "1848": 7523, "industries": 7524, "##ching": 7525, "edges": 7526, "Christianity": 7527, "Maurice": 7528, "Trent": 7529, "Economics": 7530, "carrier": 7531, "Reed": 7532, "##gon": 7533, "tribute": 7534, "Pradesh": 7535, "##ale": 7536, "extend": 7537, "attitude": 7538, "Yale": 7539, "##lu": 7540, "settlements": 7541, "glasses": 7542, "taxes": 7543, "targets": 7544, "##ids": 7545, "quarters": 7546, "##ological": 7547, "connect": 7548, "hence": 7549, "metre": 7550, "collapse": 7551, "underneath": 7552, "banned": 7553, "Future": 7554, "clients": 7555, "alternate": 7556, "explosion": 7557, "kinds": 7558, "Commons": 7559, "hungry": 7560, "dragon": 7561, "Chapel": 7562, "Buddhist": 7563, "lover": 7564, "depression": 7565, "pulls": 7566, "##ges": 7567, "##uk": 7568, "origins": 7569, "computers": 7570, "crosses": 7571, "kissing": 7572, "assume": 7573, "emphasis": 7574, "lighting": 7575, "##ites": 7576, "personally": 7577, "crashed": 7578, "beam": 7579, "touchdown": 7580, "lane": 7581, "comparison": 7582, "##mont": 7583, "Hitler": 7584, "##las": 7585, "execution": 7586, "##ene": 7587, "acre": 7588, "sum": 7589, "Pearl": 7590, "ray": 7591, "##point": 7592, "essentially": 7593, "worker": 7594, "convicted": 7595, "tear": 7596, "Clay": 7597, "recovery": 7598, "Literature": 7599, "Unfortunately": 7600, "##row": 7601, "partial": 7602, "Petersburg": 7603, "Bulgaria": 7604, "coaching": 7605, "evolved": 7606, "reception": 7607, "enters": 7608, "narrowed": 7609, "elevator": 7610, "therapy": 7611, "defended": 7612, "pairs": 7613, "##lam": 7614, "breaks": 7615, "Bennett": 7616, "Uncle": 7617, "cylinder": 7618, "##ison": 7619, "passion": 7620, "bases": 7621, "Actor": 7622, "cancelled": 7623, "battles": 7624, "extensively": 7625, "oxygen": 7626, "Ancient": 7627, "specialized": 7628, "negotiations": 7629, "##rat": 7630, "acquisition": 7631, "convince": 7632, "interpretation": 7633, "##00": 7634, "photos": 7635, "aspect": 7636, "colleges": 7637, "Artist": 7638, "keeps": 7639, "##wing": 7640, "Croatia": 7641, "##ona": 7642, "Hughes": 7643, "Otto": 7644, "comments": 7645, "##du": 7646, "Ph": 7647, "Sweet": 7648, "adventure": 7649, "describing": 7650, "Student": 7651, "Shakespeare": 7652, "scattered": 7653, "objective": 7654, "Aviation": 7655, "Phillips": 7656, "Fourth": 7657, "athletes": 7658, "##hal": 7659, "##tered": 7660, "Guitar": 7661, "intensity": 7662, "n\u00e9e": 7663, "dining": 7664, "curve": 7665, "Obama": 7666, "topics": 7667, "legislative": 7668, "Mill": 7669, "Cruz": 7670, "##ars": 7671, "Members": 7672, "recipient": 7673, "Derby": 7674, "inspiration": 7675, "corresponding": 7676, "fed": 7677, "YouTube": 7678, "coins": 7679, "pressing": 7680, "intent": 7681, "Karen": 7682, "cinema": 7683, "Delta": 7684, "destination": 7685, "shorter": 7686, "Christians": 7687, "imagined": 7688, "canal": 7689, "Newcastle": 7690, "Shah": 7691, "Adrian": 7692, "super": 7693, "Males": 7694, "160": 7695, "liberal": 7696, "lord": 7697, "bat": 7698, "supplied": 7699, "Claude": 7700, "meal": 7701, "worship": 7702, "##atic": 7703, "Han": 7704, "wire": 7705, "\u00b0F": 7706, "##tha": 7707, "punishment": 7708, "thirteen": 7709, "fighters": 7710, "##ibility": 7711, "1859": 7712, "Ball": 7713, "gardens": 7714, "##ari": 7715, "Ottawa": 7716, "pole": 7717, "indicating": 7718, "Twenty": 7719, "Higher": 7720, "Bass": 7721, "Ivy": 7722, "farming": 7723, "##urs": 7724, "certified": 7725, "Saudi": 7726, "plenty": 7727, "##ces": 7728, "restaurants": 7729, "Representative": 7730, "Miles": 7731, "payment": 7732, "##inger": 7733, "##rit": 7734, "Confederate": 7735, "festivals": 7736, "references": 7737, "##i\u0107": 7738, "Mario": 7739, "PhD": 7740, "playoffs": 7741, "witness": 7742, "rice": 7743, "mask": 7744, "saving": 7745, "opponents": 7746, "enforcement": 7747, "automatically": 7748, "relegated": 7749, "##oe": 7750, "radar": 7751, "whenever": 7752, "Financial": 7753, "imperial": 7754, "uncredited": 7755, "influences": 7756, "Abraham": 7757, "skull": 7758, "Guardian": 7759, "Haven": 7760, "Bengal": 7761, "impressive": 7762, "input": 7763, "mixture": 7764, "Warsaw": 7765, "altitude": 7766, "distinction": 7767, "1857": 7768, "collective": 7769, "Annie": 7770, "##ean": 7771, "##bal": 7772, "directions": 7773, "Flying": 7774, "##nic": 7775, "faded": 7776, "##ella": 7777, "contributing": 7778, "##\u00f3": 7779, "employee": 7780, "##lum": 7781, "##yl": 7782, "ruler": 7783, "oriented": 7784, "conductor": 7785, "focusing": 7786, "##die": 7787, "Giants": 7788, "Mills": 7789, "mines": 7790, "Deep": 7791, "curled": 7792, "Jessica": 7793, "guitars": 7794, "Louise": 7795, "procedure": 7796, "Machine": 7797, "failing": 7798, "attendance": 7799, "Nepal": 7800, "Brad": 7801, "Liam": 7802, "tourist": 7803, "exhibited": 7804, "Sophie": 7805, "depicted": 7806, "Shaw": 7807, "Chuck": 7808, "##can": 7809, "expecting": 7810, "challenges": 7811, "##nda": 7812, "equally": 7813, "resignation": 7814, "##logical": 7815, "Tigers": 7816, "loop": 7817, "pitched": 7818, "outdoor": 7819, "reviewed": 7820, "hopes": 7821, "True": 7822, "temporarily": 7823, "Borough": 7824, "torn": 7825, "jerked": 7826, "collect": 7827, "Berkeley": 7828, "Independence": 7829, "cotton": 7830, "retreat": 7831, "campaigns": 7832, "participating": 7833, "Intelligence": 7834, "Heaven": 7835, "##ked": 7836, "situations": 7837, "borough": 7838, "Democrats": 7839, "Harbor": 7840, "##len": 7841, "Liga": 7842, "serial": 7843, "circles": 7844, "fourteen": 7845, "##lot": 7846, "seized": 7847, "filling": 7848, "departments": 7849, "finance": 7850, "absolute": 7851, "Roland": 7852, "Nate": 7853, "floors": 7854, "raced": 7855, "struggling": 7856, "deliver": 7857, "protests": 7858, "##tel": 7859, "Exchange": 7860, "efficient": 7861, "experiments": 7862, "##dar": 7863, "faint": 7864, "3D": 7865, "binding": 7866, "Lions": 7867, "lightly": 7868, "skill": 7869, "proteins": 7870, "difficulties": 7871, "##cal": 7872, "monthly": 7873, "camps": 7874, "flood": 7875, "loves": 7876, "Amanda": 7877, "Commerce": 7878, "##oid": 7879, "##lies": 7880, "elementary": 7881, "##tre": 7882, "organic": 7883, "##stein": 7884, "##ph": 7885, "receives": 7886, "Tech": 7887, "enormous": 7888, "distinctive": 7889, "Joint": 7890, "experiment": 7891, "Circuit": 7892, "citizen": 7893, "##hy": 7894, "shelter": 7895, "ideal": 7896, "practically": 7897, "formula": 7898, "addressed": 7899, "Foster": 7900, "Productions": 7901, "##ax": 7902, "variable": 7903, "punk": 7904, "Voice": 7905, "fastest": 7906, "concentrated": 7907, "##oma": 7908, "##yer": 7909, "stored": 7910, "surrender": 7911, "vary": 7912, "Sergeant": 7913, "Wells": 7914, "ward": 7915, "Wait": 7916, "##ven": 7917, "playoff": 7918, "reducing": 7919, "cavalry": 7920, "##dle": 7921, "Venezuela": 7922, "tissue": 7923, "amounts": 7924, "sweat": 7925, "##we": 7926, "Non": 7927, "##nik": 7928, "beetle": 7929, "##bu": 7930, "##tu": 7931, "Jared": 7932, "Hunt": 7933, "##\u2082": 7934, "fat": 7935, "Sultan": 7936, "Living": 7937, "Circle": 7938, "Secondary": 7939, "Suddenly": 7940, "reverse": 7941, "##min": 7942, "Travel": 7943, "##bin": 7944, "Lebanon": 7945, "##mas": 7946, "virus": 7947, "Wind": 7948, "dissolved": 7949, "enrolled": 7950, "holiday": 7951, "Keep": 7952, "helicopter": 7953, "Clarke": 7954, "constitutional": 7955, "technologies": 7956, "doubles": 7957, "instructions": 7958, "##ace": 7959, "Azerbaijan": 7960, "##ill": 7961, "occasional": 7962, "frozen": 7963, "trick": 7964, "wiped": 7965, "writings": 7966, "Shanghai": 7967, "preparing": 7968, "challenged": 7969, "mainstream": 7970, "summit": 7971, "180": 7972, "##arian": 7973, "##rating": 7974, "designation": 7975, "##ada": 7976, "revenge": 7977, "filming": 7978, "tightened": 7979, "Miguel": 7980, "Montana": 7981, "reflect": 7982, "celebration": 7983, "bitch": 7984, "flashed": 7985, "signals": 7986, "rounded": 7987, "peoples": 7988, "##tation": 7989, "renowned": 7990, "Google": 7991, "characteristic": 7992, "Campaign": 7993, "sliding": 7994, "##rman": 7995, "usage": 7996, "Record": 7997, "Using": 7998, "woke": 7999, "solutions": 8000, "holes": 8001, "theories": 8002, "logo": 8003, "Protestant": 8004, "relaxed": 8005, "brow": 8006, "nickname": 8007, "Reading": 8008, "marble": 8009, "##tro": 8010, "symptoms": 8011, "Overall": 8012, "capita": 8013, "##ila": 8014, "outbreak": 8015, "revolution": 8016, "deemed": 8017, "Principal": 8018, "Hannah": 8019, "approaches": 8020, "inducted": 8021, "Wellington": 8022, "vulnerable": 8023, "Environmental": 8024, "Drama": 8025, "incumbent": 8026, "Dame": 8027, "1854": 8028, "travels": 8029, "samples": 8030, "accurate": 8031, "physically": 8032, "Sony": 8033, "Nashville": 8034, "##sville": 8035, "##lic": 8036, "##og": 8037, "Producer": 8038, "Lucky": 8039, "tough": 8040, "Stanford": 8041, "resort": 8042, "repeatedly": 8043, "eyebrows": 8044, "Far": 8045, "choir": 8046, "commenced": 8047, "##ep": 8048, "##ridge": 8049, "rage": 8050, "swing": 8051, "sequel": 8052, "heir": 8053, "buses": 8054, "ad": 8055, "Grove": 8056, "##late": 8057, "##rick": 8058, "updated": 8059, "##SA": 8060, "Delaware": 8061, "##fa": 8062, "Athletics": 8063, "warmth": 8064, "Off": 8065, "excitement": 8066, "verse": 8067, "Protection": 8068, "Villa": 8069, "corruption": 8070, "intellectual": 8071, "Jenny": 8072, "##lyn": 8073, "mystery": 8074, "prayer": 8075, "healthy": 8076, "##ologist": 8077, "Bear": 8078, "lab": 8079, "Ernest": 8080, "Remix": 8081, "register": 8082, "basement": 8083, "Montgomery": 8084, "consistent": 8085, "tier": 8086, "1855": 8087, "Preston": 8088, "Brooks": 8089, "##maker": 8090, "vocalist": 8091, "laboratory": 8092, "delayed": 8093, "wheels": 8094, "rope": 8095, "bachelor": 8096, "pitcher": 8097, "Block": 8098, "Nevertheless": 8099, "suspect": 8100, "efficiency": 8101, "Nebraska": 8102, "siege": 8103, "FBI": 8104, "planted": 8105, "##AC": 8106, "Newton": 8107, "breeding": 8108, "##ain": 8109, "eighteen": 8110, "Argentine": 8111, "encounter": 8112, "servant": 8113, "1858": 8114, "elder": 8115, "Shadow": 8116, "Episode": 8117, "fabric": 8118, "doctors": 8119, "survival": 8120, "removal": 8121, "chemistry": 8122, "volunteers": 8123, "Kane": 8124, "variant": 8125, "arrives": 8126, "Eagle": 8127, "Left": 8128, "##fe": 8129, "Jo": 8130, "divorce": 8131, "##ret": 8132, "yesterday": 8133, "Bryan": 8134, "handling": 8135, "diseases": 8136, "customer": 8137, "Sheriff": 8138, "Tiger": 8139, "Harper": 8140, "##oi": 8141, "resting": 8142, "Linda": 8143, "Sheffield": 8144, "gasped": 8145, "sexy": 8146, "economics": 8147, "alien": 8148, "tale": 8149, "footage": 8150, "Liberty": 8151, "yeah": 8152, "fundamental": 8153, "Ground": 8154, "flames": 8155, "Actress": 8156, "photographer": 8157, "Maggie": 8158, "Additional": 8159, "joke": 8160, "custom": 8161, "Survey": 8162, "Abu": 8163, "silk": 8164, "consumption": 8165, "Ellis": 8166, "bread": 8167, "##uous": 8168, "engagement": 8169, "puts": 8170, "Dog": 8171, "##hr": 8172, "poured": 8173, "guilt": 8174, "CDP": 8175, "boxes": 8176, "hardware": 8177, "clenched": 8178, "##cio": 8179, "stem": 8180, "arena": 8181, "extending": 8182, "##com": 8183, "examination": 8184, "Steel": 8185, "encountered": 8186, "revised": 8187, "140": 8188, "picking": 8189, "Car": 8190, "hasn": 8191, "Minor": 8192, "pride": 8193, "Roosevelt": 8194, "boards": 8195, "##mia": 8196, "blocked": 8197, "curious": 8198, "drag": 8199, "narrative": 8200, "brigade": 8201, "Prefecture": 8202, "mysterious": 8203, "namely": 8204, "connects": 8205, "Devil": 8206, "historians": 8207, "CHAPTER": 8208, "quit": 8209, "installation": 8210, "Golf": 8211, "empire": 8212, "elevated": 8213, "##eo": 8214, "releasing": 8215, "Bond": 8216, "##uri": 8217, "harsh": 8218, "ban": 8219, "##BA": 8220, "contracts": 8221, "cloth": 8222, "presents": 8223, "stake": 8224, "chorus": 8225, "##eau": 8226, "swear": 8227, "##mp": 8228, "allies": 8229, "generations": 8230, "Motor": 8231, "meter": 8232, "pen": 8233, "warrior": 8234, "veteran": 8235, "##EC": 8236, "comprehensive": 8237, "missile": 8238, "interaction": 8239, "instruction": 8240, "Renaissance": 8241, "rested": 8242, "Dale": 8243, "fix": 8244, "fluid": 8245, "les": 8246, "investigate": 8247, "loaded": 8248, "widow": 8249, "exhibit": 8250, "artificial": 8251, "select": 8252, "rushing": 8253, "tasks": 8254, "signature": 8255, "nowhere": 8256, "Engineer": 8257, "feared": 8258, "Prague": 8259, "bother": 8260, "extinct": 8261, "gates": 8262, "Bird": 8263, "climbing": 8264, "heels": 8265, "striking": 8266, "artwork": 8267, "hunt": 8268, "awake": 8269, "##hin": 8270, "Formula": 8271, "thereby": 8272, "commitment": 8273, "imprisoned": 8274, "Beyond": 8275, "##MA": 8276, "transformed": 8277, "Agriculture": 8278, "Low": 8279, "Movie": 8280, "radical": 8281, "complicated": 8282, "Yellow": 8283, "Auckland": 8284, "mansion": 8285, "tenth": 8286, "Trevor": 8287, "predecessor": 8288, "##eer": 8289, "disbanded": 8290, "sucked": 8291, "circular": 8292, "witch": 8293, "gaining": 8294, "lean": 8295, "Behind": 8296, "illustrated": 8297, "rang": 8298, "celebrate": 8299, "bike": 8300, "consist": 8301, "framework": 8302, "##cent": 8303, "Shane": 8304, "owns": 8305, "350": 8306, "comprises": 8307, "collaborated": 8308, "colleagues": 8309, "##cast": 8310, "engage": 8311, "fewer": 8312, "##ave": 8313, "1856": 8314, "observation": 8315, "diplomatic": 8316, "legislature": 8317, "improvements": 8318, "Interstate": 8319, "craft": 8320, "MTV": 8321, "martial": 8322, "administered": 8323, "jet": 8324, "approaching": 8325, "permanently": 8326, "attraction": 8327, "manuscript": 8328, "numbered": 8329, "Happy": 8330, "Andrea": 8331, "shallow": 8332, "Gothic": 8333, "Anti": 8334, "##bad": 8335, "improvement": 8336, "trace": 8337, "preserve": 8338, "regardless": 8339, "rode": 8340, "dies": 8341, "achievement": 8342, "maintaining": 8343, "Hamburg": 8344, "spine": 8345, "##air": 8346, "flowing": 8347, "encourage": 8348, "widened": 8349, "posts": 8350, "##bound": 8351, "125": 8352, "Southeast": 8353, "Santiago": 8354, "##bles": 8355, "impression": 8356, "receiver": 8357, "Single": 8358, "closure": 8359, "##unt": 8360, "communist": 8361, "honors": 8362, "Northwest": 8363, "105": 8364, "##ulated": 8365, "cared": 8366, "un": 8367, "hug": 8368, "magnetic": 8369, "seeds": 8370, "topic": 8371, "perceived": 8372, "prey": 8373, "prevented": 8374, "Marvel": 8375, "Eight": 8376, "Michel": 8377, "Transportation": 8378, "rings": 8379, "Gate": 8380, "##gne": 8381, "Byzantine": 8382, "accommodate": 8383, "floating": 8384, "##dor": 8385, "equation": 8386, "ministry": 8387, "##ito": 8388, "##gled": 8389, "Rules": 8390, "earthquake": 8391, "revealing": 8392, "Brother": 8393, "Celtic": 8394, "blew": 8395, "chairs": 8396, "Panama": 8397, "Leon": 8398, "attractive": 8399, "descendants": 8400, "Care": 8401, "Ambassador": 8402, "tours": 8403, "breathed": 8404, "threatening": 8405, "##cho": 8406, "smiles": 8407, "Lt": 8408, "Beginning": 8409, "##iness": 8410, "fake": 8411, "assists": 8412, "fame": 8413, "strings": 8414, "Mobile": 8415, "Liu": 8416, "parks": 8417, "http": 8418, "1852": 8419, "brush": 8420, "Aunt": 8421, "bullet": 8422, "consciousness": 8423, "##sta": 8424, "##ther": 8425, "consequences": 8426, "gather": 8427, "dug": 8428, "1851": 8429, "bridges": 8430, "Doug": 8431, "##sion": 8432, "Artists": 8433, "ignore": 8434, "Carol": 8435, "brilliant": 8436, "radiation": 8437, "temples": 8438, "basin": 8439, "clouds": 8440, "##cted": 8441, "Stevens": 8442, "spite": 8443, "soap": 8444, "consumer": 8445, "Damn": 8446, "Snow": 8447, "recruited": 8448, "##craft": 8449, "Advanced": 8450, "tournaments": 8451, "Quinn": 8452, "undergraduate": 8453, "questioned": 8454, "Palmer": 8455, "Annual": 8456, "Others": 8457, "feeding": 8458, "Spider": 8459, "printing": 8460, "##orn": 8461, "cameras": 8462, "functional": 8463, "Chester": 8464, "readers": 8465, "Alpha": 8466, "universal": 8467, "Faith": 8468, "Brandon": 8469, "Fran\u00e7ois": 8470, "authored": 8471, "Ring": 8472, "el": 8473, "aims": 8474, "athletic": 8475, "possessed": 8476, "Vermont": 8477, "programmes": 8478, "##uck": 8479, "bore": 8480, "Fisher": 8481, "statements": 8482, "shed": 8483, "saxophone": 8484, "neighboring": 8485, "pronounced": 8486, "barrel": 8487, "bags": 8488, "##dge": 8489, "organisations": 8490, "pilots": 8491, "casualties": 8492, "Kenneth": 8493, "##brook": 8494, "silently": 8495, "Malcolm": 8496, "span": 8497, "Essex": 8498, "anchor": 8499, "##hl": 8500, "virtual": 8501, "lessons": 8502, "Henri": 8503, "Trump": 8504, "Page": 8505, "pile": 8506, "locomotive": 8507, "wounds": 8508, "uncomfortable": 8509, "sustained": 8510, "Diana": 8511, "Eagles": 8512, "##pi": 8513, "2000s": 8514, "documented": 8515, "##bel": 8516, "Cassie": 8517, "delay": 8518, "kisses": 8519, "##ines": 8520, "variation": 8521, "##ag": 8522, "growled": 8523, "##mark": 8524, "##ways": 8525, "Leslie": 8526, "studios": 8527, "Friedrich": 8528, "aunt": 8529, "actively": 8530, "armor": 8531, "eaten": 8532, "historically": 8533, "Better": 8534, "purse": 8535, "honey": 8536, "ratings": 8537, "##\u00e9e": 8538, "naturally": 8539, "1840": 8540, "peer": 8541, "Kenny": 8542, "Cardinal": 8543, "database": 8544, "Looking": 8545, "runners": 8546, "handsome": 8547, "Double": 8548, "PA": 8549, "##boat": 8550, "##sted": 8551, "protecting": 8552, "##jan": 8553, "Diamond": 8554, "concepts": 8555, "interface": 8556, "##aki": 8557, "Watch": 8558, "Article": 8559, "Columbus": 8560, "dialogue": 8561, "pause": 8562, "##rio": 8563, "extends": 8564, "blanket": 8565, "pulse": 8566, "1853": 8567, "affiliate": 8568, "ladies": 8569, "Ronald": 8570, "counted": 8571, "kills": 8572, "demons": 8573, "##zation": 8574, "Airlines": 8575, "Marco": 8576, "Cat": 8577, "companion": 8578, "mere": 8579, "Yugoslavia": 8580, "Forum": 8581, "Allan": 8582, "pioneer": 8583, "Competition": 8584, "Methodist": 8585, "patent": 8586, "nobody": 8587, "Stockholm": 8588, "##ien": 8589, "regulation": 8590, "##ois": 8591, "accomplished": 8592, "##itive": 8593, "washed": 8594, "sake": 8595, "Vladimir": 8596, "crops": 8597, "prestigious": 8598, "humor": 8599, "Sally": 8600, "labour": 8601, "tributary": 8602, "trap": 8603, "altered": 8604, "examined": 8605, "Mumbai": 8606, "bombing": 8607, "Ash": 8608, "noble": 8609, "suspension": 8610, "ruins": 8611, "##bank": 8612, "spare": 8613, "displays": 8614, "guided": 8615, "dimensional": 8616, "Iraqi": 8617, "##hon": 8618, "sciences": 8619, "Franz": 8620, "relating": 8621, "fence": 8622, "followers": 8623, "Palestine": 8624, "invented": 8625, "proceeded": 8626, "Batman": 8627, "Bradley": 8628, "##yard": 8629, "##ova": 8630, "crystal": 8631, "Kerala": 8632, "##ima": 8633, "shipping": 8634, "handled": 8635, "Want": 8636, "abolished": 8637, "Drew": 8638, "##tter": 8639, "Powell": 8640, "Half": 8641, "##table": 8642, "##cker": 8643, "exhibitions": 8644, "Were": 8645, "assignment": 8646, "assured": 8647, "##rine": 8648, "Indonesian": 8649, "Grammy": 8650, "acknowledged": 8651, "Kylie": 8652, "coaches": 8653, "structural": 8654, "clearing": 8655, "stationed": 8656, "Say": 8657, "Total": 8658, "Rail": 8659, "besides": 8660, "glow": 8661, "threats": 8662, "afford": 8663, "Tree": 8664, "Musical": 8665, "##pp": 8666, "elite": 8667, "centered": 8668, "explore": 8669, "Engineers": 8670, "Stakes": 8671, "Hello": 8672, "tourism": 8673, "severely": 8674, "assessment": 8675, "##tly": 8676, "crack": 8677, "politicians": 8678, "##rrow": 8679, "sheets": 8680, "volunteer": 8681, "##borough": 8682, "##hold": 8683, "announcement": 8684, "recover": 8685, "contribute": 8686, "lungs": 8687, "##ille": 8688, "mainland": 8689, "presentation": 8690, "Johann": 8691, "Writing": 8692, "1849": 8693, "##bird": 8694, "Study": 8695, "Boulevard": 8696, "coached": 8697, "fail": 8698, "airline": 8699, "Congo": 8700, "Plus": 8701, "Syrian": 8702, "introduce": 8703, "ridge": 8704, "Casey": 8705, "manages": 8706, "##fi": 8707, "searched": 8708, "Support": 8709, "succession": 8710, "progressive": 8711, "coup": 8712, "cultures": 8713, "##lessly": 8714, "sensation": 8715, "Cork": 8716, "Elena": 8717, "Sofia": 8718, "Philosophy": 8719, "mini": 8720, "trunk": 8721, "academy": 8722, "Mass": 8723, "Liz": 8724, "practiced": 8725, "Reid": 8726, "##ule": 8727, "satisfied": 8728, "experts": 8729, "Wilhelm": 8730, "Woods": 8731, "invitation": 8732, "Angels": 8733, "calendar": 8734, "joy": 8735, "Sr": 8736, "Dam": 8737, "packed": 8738, "##uan": 8739, "bastard": 8740, "Workers": 8741, "broadcasts": 8742, "logic": 8743, "cooking": 8744, "backward": 8745, "##ack": 8746, "Chen": 8747, "creates": 8748, "enzyme": 8749, "##xi": 8750, "Davies": 8751, "aviation": 8752, "VII": 8753, "Conservation": 8754, "fucking": 8755, "Knights": 8756, "##kan": 8757, "requiring": 8758, "hectares": 8759, "wars": 8760, "ate": 8761, "##box": 8762, "Mind": 8763, "desired": 8764, "oak": 8765, "absorbed": 8766, "Really": 8767, "Vietnamese": 8768, "Paulo": 8769, "athlete": 8770, "##car": 8771, "##eth": 8772, "Talk": 8773, "Wu": 8774, "##cks": 8775, "survivors": 8776, "Yang": 8777, "Joel": 8778, "Almost": 8779, "Holmes": 8780, "Armed": 8781, "Joshua": 8782, "priests": 8783, "discontinued": 8784, "##sey": 8785, "blond": 8786, "Rolling": 8787, "suggesting": 8788, "CA": 8789, "clay": 8790, "exterior": 8791, "Scientific": 8792, "##sive": 8793, "Giovanni": 8794, "Hi": 8795, "farther": 8796, "contents": 8797, "Winners": 8798, "animation": 8799, "neutral": 8800, "mall": 8801, "Notes": 8802, "layers": 8803, "professionals": 8804, "Armstrong": 8805, "Against": 8806, "Piano": 8807, "involve": 8808, "monitor": 8809, "angel": 8810, "parked": 8811, "bears": 8812, "seated": 8813, "feat": 8814, "beliefs": 8815, "##kers": 8816, "Version": 8817, "suffer": 8818, "##ceae": 8819, "guidance": 8820, "##eur": 8821, "honored": 8822, "raid": 8823, "alarm": 8824, "Glen": 8825, "Ellen": 8826, "Jamaica": 8827, "trio": 8828, "enabled": 8829, "##ils": 8830, "procedures": 8831, "##hus": 8832, "moderate": 8833, "upstairs": 8834, "##ses": 8835, "torture": 8836, "Georgian": 8837, "rebellion": 8838, "Fernando": 8839, "Nice": 8840, "##are": 8841, "Aires": 8842, "Campus": 8843, "beast": 8844, "##hing": 8845, "1847": 8846, "##FA": 8847, "Isle": 8848, "##logist": 8849, "Princeton": 8850, "cathedral": 8851, "Oakland": 8852, "Solomon": 8853, "##tto": 8854, "Milwaukee": 8855, "upcoming": 8856, "midfielder": 8857, "Neither": 8858, "sacred": 8859, "Eyes": 8860, "appreciate": 8861, "Brunswick": 8862, "secrets": 8863, "Rice": 8864, "Somerset": 8865, "Chancellor": 8866, "Curtis": 8867, "##gel": 8868, "Rich": 8869, "separation": 8870, "grid": 8871, "##los": 8872, "##bon": 8873, "urge": 8874, "##ees": 8875, "##ree": 8876, "freight": 8877, "towers": 8878, "psychology": 8879, "requirement": 8880, "dollar": 8881, "##fall": 8882, "##sman": 8883, "exile": 8884, "tomb": 8885, "Salt": 8886, "Stefan": 8887, "Buenos": 8888, "Revival": 8889, "Porter": 8890, "tender": 8891, "diesel": 8892, "chocolate": 8893, "Eugene": 8894, "Legion": 8895, "Laboratory": 8896, "sheep": 8897, "arched": 8898, "hospitals": 8899, "orbit": 8900, "Full": 8901, "##hall": 8902, "drinks": 8903, "ripped": 8904, "##RS": 8905, "tense": 8906, "Hank": 8907, "leagues": 8908, "##nberg": 8909, "PlayStation": 8910, "fool": 8911, "Punjab": 8912, "relatives": 8913, "Comedy": 8914, "sur": 8915, "1846": 8916, "Tonight": 8917, "Sox": 8918, "##if": 8919, "Rabbi": 8920, "org": 8921, "speaks": 8922, "institute": 8923, "defender": 8924, "painful": 8925, "wishes": 8926, "Weekly": 8927, "literacy": 8928, "portions": 8929, "snake": 8930, "item": 8931, "deals": 8932, "##tum": 8933, "autumn": 8934, "sharply": 8935, "reforms": 8936, "thighs": 8937, "prototype": 8938, "##ition": 8939, "argues": 8940, "disorder": 8941, "Physics": 8942, "terror": 8943, "provisions": 8944, "refugees": 8945, "predominantly": 8946, "independently": 8947, "march": 8948, "##graphy": 8949, "Arabia": 8950, "Andrews": 8951, "Bus": 8952, "Money": 8953, "drops": 8954, "##zar": 8955, "pistol": 8956, "matrix": 8957, "revolutionary": 8958, "##ust": 8959, "Starting": 8960, "##ptic": 8961, "Oak": 8962, "Monica": 8963, "##ides": 8964, "servants": 8965, "##hed": 8966, "archaeological": 8967, "divorced": 8968, "rocket": 8969, "enjoying": 8970, "fires": 8971, "##nel": 8972, "assembled": 8973, "qualification": 8974, "retiring": 8975, "##fied": 8976, "Distinguished": 8977, "handful": 8978, "infection": 8979, "Durham": 8980, "##itz": 8981, "fortune": 8982, "renewed": 8983, "Chelsea": 8984, "##sley": 8985, "curved": 8986, "gesture": 8987, "retain": 8988, "exhausted": 8989, "##ifying": 8990, "Perth": 8991, "jumping": 8992, "Palestinian": 8993, "Simpson": 8994, "colonies": 8995, "steal": 8996, "##chy": 8997, "corners": 8998, "Finn": 8999, "arguing": 9000, "Martha": 9001, "##var": 9002, "Betty": 9003, "emerging": 9004, "Heights": 9005, "Hindi": 9006, "Manila": 9007, "pianist": 9008, "founders": 9009, "regret": 9010, "Napoleon": 9011, "elbow": 9012, "overhead": 9013, "bold": 9014, "praise": 9015, "humanity": 9016, "##ori": 9017, "Revolutionary": 9018, "##ere": 9019, "fur": 9020, "##ole": 9021, "Ashley": 9022, "Official": 9023, "##rm": 9024, "lovely": 9025, "Architecture": 9026, "##sch": 9027, "Baronet": 9028, "virtually": 9029, "##OS": 9030, "descended": 9031, "immigration": 9032, "##das": 9033, "##kes": 9034, "Holly": 9035, "Wednesday": 9036, "maintains": 9037, "theatrical": 9038, "Evan": 9039, "Gardens": 9040, "citing": 9041, "##gia": 9042, "segments": 9043, "Bailey": 9044, "Ghost": 9045, "##city": 9046, "governing": 9047, "graphics": 9048, "##ined": 9049, "privately": 9050, "potentially": 9051, "transformation": 9052, "Crystal": 9053, "Cabinet": 9054, "sacrifice": 9055, "hesitated": 9056, "mud": 9057, "Apollo": 9058, "Desert": 9059, "bin": 9060, "victories": 9061, "Editor": 9062, "Railways": 9063, "Web": 9064, "Case": 9065, "tourists": 9066, "Brussels": 9067, "Franco": 9068, "compiled": 9069, "topped": 9070, "Gene": 9071, "engineers": 9072, "commentary": 9073, "egg": 9074, "escort": 9075, "nerve": 9076, "arch": 9077, "necessarily": 9078, "frustration": 9079, "Michelle": 9080, "democracy": 9081, "genes": 9082, "Facebook": 9083, "halfway": 9084, "##ient": 9085, "102": 9086, "flipped": 9087, "Won": 9088, "##mit": 9089, "NASA": 9090, "Lynn": 9091, "Provincial": 9092, "ambassador": 9093, "Inspector": 9094, "glared": 9095, "Change": 9096, "McDonald": 9097, "developments": 9098, "tucked": 9099, "noting": 9100, "Gibson": 9101, "circulation": 9102, "dubbed": 9103, "armies": 9104, "resource": 9105, "Headquarters": 9106, "##iest": 9107, "Mia": 9108, "Albanian": 9109, "Oil": 9110, "Albums": 9111, "excuse": 9112, "intervention": 9113, "Grande": 9114, "Hugo": 9115, "integration": 9116, "civilians": 9117, "depends": 9118, "reserves": 9119, "Dee": 9120, "compositions": 9121, "identification": 9122, "restrictions": 9123, "quarterback": 9124, "Miranda": 9125, "Universe": 9126, "favourite": 9127, "ranges": 9128, "hint": 9129, "loyal": 9130, "Op": 9131, "entity": 9132, "Manual": 9133, "quoted": 9134, "dealt": 9135, "specialist": 9136, "Zhang": 9137, "download": 9138, "Westminster": 9139, "Rebecca": 9140, "streams": 9141, "Anglican": 9142, "variations": 9143, "Mine": 9144, "detective": 9145, "Films": 9146, "reserved": 9147, "##oke": 9148, "##key": 9149, "sailing": 9150, "##gger": 9151, "expanding": 9152, "recall": 9153, "discovers": 9154, "particles": 9155, "behaviour": 9156, "Gavin": 9157, "blank": 9158, "permit": 9159, "Java": 9160, "Fraser": 9161, "Pass": 9162, "##non": 9163, "##TA": 9164, "panels": 9165, "statistics": 9166, "notion": 9167, "courage": 9168, "dare": 9169, "venues": 9170, "##roy": 9171, "Box": 9172, "Newport": 9173, "travelling": 9174, "Thursday": 9175, "warriors": 9176, "Glenn": 9177, "criteria": 9178, "360": 9179, "mutual": 9180, "restore": 9181, "varied": 9182, "bitter": 9183, "Katherine": 9184, "##lant": 9185, "ritual": 9186, "bits": 9187, "##\u00e0": 9188, "Henderson": 9189, "trips": 9190, "Richardson": 9191, "Detective": 9192, "curse": 9193, "psychological": 9194, "Il": 9195, "midnight": 9196, "streak": 9197, "facts": 9198, "Dawn": 9199, "Indies": 9200, "Edmund": 9201, "roster": 9202, "Gen": 9203, "##nation": 9204, "1830": 9205, "congregation": 9206, "shaft": 9207, "##ically": 9208, "##mination": 9209, "Indianapolis": 9210, "Sussex": 9211, "loving": 9212, "##bit": 9213, "sounding": 9214, "horrible": 9215, "Continental": 9216, "Griffin": 9217, "advised": 9218, "magical": 9219, "millions": 9220, "##date": 9221, "1845": 9222, "Safety": 9223, "lifting": 9224, "determination": 9225, "valid": 9226, "dialect": 9227, "Penn": 9228, "Know": 9229, "triple": 9230, "avoided": 9231, "dancer": 9232, "judgment": 9233, "sixty": 9234, "farmer": 9235, "lakes": 9236, "blast": 9237, "aggressive": 9238, "Abby": 9239, "tag": 9240, "chains": 9241, "inscription": 9242, "##nn": 9243, "conducting": 9244, "Scout": 9245, "buying": 9246, "##wich": 9247, "spreading": 9248, "##OC": 9249, "array": 9250, "hurried": 9251, "Environment": 9252, "improving": 9253, "prompted": 9254, "fierce": 9255, "Taking": 9256, "Away": 9257, "tune": 9258, "pissed": 9259, "Bull": 9260, "catching": 9261, "##ying": 9262, "eyebrow": 9263, "metropolitan": 9264, "terrain": 9265, "##rel": 9266, "Lodge": 9267, "manufacturers": 9268, "creator": 9269, "##etic": 9270, "happiness": 9271, "ports": 9272, "##ners": 9273, "Relations": 9274, "fortress": 9275, "targeted": 9276, "##ST": 9277, "allegedly": 9278, "blues": 9279, "##osa": 9280, "Bosnia": 9281, "##dom": 9282, "burial": 9283, "similarly": 9284, "stranger": 9285, "pursued": 9286, "symbols": 9287, "rebels": 9288, "reflection": 9289, "routine": 9290, "traced": 9291, "indoor": 9292, "eventual": 9293, "##ska": 9294, "##\u00e3o": 9295, "##una": 9296, "MD": 9297, "##phone": 9298, "oh": 9299, "grants": 9300, "Reynolds": 9301, "rid": 9302, "operators": 9303, "##nus": 9304, "Joey": 9305, "vital": 9306, "siblings": 9307, "keyboard": 9308, "br": 9309, "removing": 9310, "societies": 9311, "drives": 9312, "solely": 9313, "princess": 9314, "lighter": 9315, "Various": 9316, "Cavalry": 9317, "believing": 9318, "SC": 9319, "underwent": 9320, "relay": 9321, "smelled": 9322, "syndrome": 9323, "welfare": 9324, "authorized": 9325, "seemingly": 9326, "Hard": 9327, "chicken": 9328, "##rina": 9329, "Ages": 9330, "Bo": 9331, "democratic": 9332, "barn": 9333, "Eye": 9334, "shorts": 9335, "##coming": 9336, "##hand": 9337, "disappointed": 9338, "unexpected": 9339, "centres": 9340, "Exhibition": 9341, "Stories": 9342, "Site": 9343, "banking": 9344, "accidentally": 9345, "Agent": 9346, "conjunction": 9347, "Andr\u00e9": 9348, "Chloe": 9349, "resist": 9350, "width": 9351, "Queens": 9352, "provision": 9353, "##art": 9354, "Melissa": 9355, "Honorary": 9356, "Del": 9357, "prefer": 9358, "abruptly": 9359, "duration": 9360, "##vis": 9361, "Glass": 9362, "enlisted": 9363, "##ado": 9364, "discipline": 9365, "Sisters": 9366, "carriage": 9367, "##ctor": 9368, "##sburg": 9369, "Lancashire": 9370, "log": 9371, "fuck": 9372, "##iz": 9373, "closet": 9374, "collecting": 9375, "holy": 9376, "rape": 9377, "trusted": 9378, "cleaning": 9379, "inhabited": 9380, "Rocky": 9381, "104": 9382, "editorial": 9383, "##yu": 9384, "##ju": 9385, "succeed": 9386, "strict": 9387, "Cuban": 9388, "##iya": 9389, "Bronze": 9390, "outcome": 9391, "##ifies": 9392, "##set": 9393, "corps": 9394, "Hero": 9395, "barrier": 9396, "Kumar": 9397, "groaned": 9398, "Nina": 9399, "Burton": 9400, "enable": 9401, "stability": 9402, "Milton": 9403, "knots": 9404, "##ination": 9405, "slavery": 9406, "##borg": 9407, "curriculum": 9408, "trailer": 9409, "warfare": 9410, "Dante": 9411, "Edgar": 9412, "revival": 9413, "Copenhagen": 9414, "define": 9415, "advocate": 9416, "Garrett": 9417, "Luther": 9418, "overcome": 9419, "pipe": 9420, "750": 9421, "construct": 9422, "Scotia": 9423, "kings": 9424, "flooding": 9425, "##hard": 9426, "Ferdinand": 9427, "Felix": 9428, "forgot": 9429, "Fish": 9430, "Kurt": 9431, "elaborate": 9432, "##BC": 9433, "graphic": 9434, "gripped": 9435, "colonel": 9436, "Sophia": 9437, "Advisory": 9438, "Self": 9439, "##uff": 9440, "##lio": 9441, "monitoring": 9442, "seal": 9443, "senses": 9444, "rises": 9445, "peaceful": 9446, "journals": 9447, "1837": 9448, "checking": 9449, "legendary": 9450, "Ghana": 9451, "##power": 9452, "ammunition": 9453, "Rosa": 9454, "Richards": 9455, "nineteenth": 9456, "ferry": 9457, "aggregate": 9458, "Troy": 9459, "inter": 9460, "##wall": 9461, "Triple": 9462, "steep": 9463, "tent": 9464, "Cyprus": 9465, "1844": 9466, "##woman": 9467, "commanding": 9468, "farms": 9469, "doi": 9470, "navy": 9471, "specified": 9472, "na": 9473, "cricketer": 9474, "transported": 9475, "Think": 9476, "comprising": 9477, "grateful": 9478, "solve": 9479, "##core": 9480, "beings": 9481, "clerk": 9482, "grain": 9483, "vector": 9484, "discrimination": 9485, "##TC": 9486, "Katie": 9487, "reasonable": 9488, "drawings": 9489, "veins": 9490, "consideration": 9491, "Monroe": 9492, "repeat": 9493, "breed": 9494, "dried": 9495, "witnessed": 9496, "ordained": 9497, "Current": 9498, "spirits": 9499, "remarkable": 9500, "consultant": 9501, "urged": 9502, "Remember": 9503, "anime": 9504, "singers": 9505, "phenomenon": 9506, "Rhode": 9507, "Carlo": 9508, "demanding": 9509, "findings": 9510, "manual": 9511, "varying": 9512, "Fellowship": 9513, "generate": 9514, "safely": 9515, "heated": 9516, "withdrawn": 9517, "##ao": 9518, "headquartered": 9519, "##zon": 9520, "##lav": 9521, "##ency": 9522, "Col": 9523, "Memphis": 9524, "imposed": 9525, "rivals": 9526, "Planet": 9527, "healing": 9528, "##hs": 9529, "ensemble": 9530, "Warriors": 9531, "##bone": 9532, "cult": 9533, "Frankfurt": 9534, "##HL": 9535, "diversity": 9536, "Gerald": 9537, "intermediate": 9538, "##izes": 9539, "reactions": 9540, "Sister": 9541, "##ously": 9542, "##lica": 9543, "quantum": 9544, "awkward": 9545, "mentions": 9546, "pursuit": 9547, "##ography": 9548, "varies": 9549, "profession": 9550, "molecular": 9551, "consequence": 9552, "lectures": 9553, "cracked": 9554, "103": 9555, "slowed": 9556, "##tsu": 9557, "cheese": 9558, "upgraded": 9559, "suite": 9560, "substance": 9561, "Kingston": 9562, "1800": 9563, "Idaho": 9564, "Theory": 9565, "##een": 9566, "ain": 9567, "Carson": 9568, "Molly": 9569, "##OR": 9570, "configuration": 9571, "Whitney": 9572, "reads": 9573, "audiences": 9574, "##tie": 9575, "Geneva": 9576, "Outside": 9577, "##nen": 9578, "##had": 9579, "transit": 9580, "volleyball": 9581, "Randy": 9582, "Chad": 9583, "rubber": 9584, "motorcycle": 9585, "respected": 9586, "eager": 9587, "Level": 9588, "coin": 9589, "##lets": 9590, "neighbouring": 9591, "##wski": 9592, "confident": 9593, "##cious": 9594, "poll": 9595, "uncertain": 9596, "punch": 9597, "thesis": 9598, "Tucker": 9599, "IATA": 9600, "Alec": 9601, "##ographic": 9602, "##law": 9603, "1841": 9604, "desperately": 9605, "1812": 9606, "Lithuania": 9607, "accent": 9608, "Cox": 9609, "lightning": 9610, "skirt": 9611, "##load": 9612, "Burns": 9613, "Dynasty": 9614, "##ug": 9615, "chapters": 9616, "Working": 9617, "dense": 9618, "Morocco": 9619, "##kins": 9620, "casting": 9621, "Set": 9622, "activated": 9623, "oral": 9624, "Brien": 9625, "horn": 9626, "HIV": 9627, "dawn": 9628, "stumbled": 9629, "altar": 9630, "tore": 9631, "considerably": 9632, "Nicole": 9633, "interchange": 9634, "registration": 9635, "biography": 9636, "Hull": 9637, "Stan": 9638, "bulk": 9639, "consent": 9640, "Pierce": 9641, "##ER": 9642, "Fifth": 9643, "marched": 9644, "terrorist": 9645, "##piece": 9646, "##itt": 9647, "Presidential": 9648, "Heather": 9649, "staged": 9650, "Plant": 9651, "relegation": 9652, "sporting": 9653, "joins": 9654, "##ced": 9655, "Pakistani": 9656, "dynamic": 9657, "Heat": 9658, "##lf": 9659, "ourselves": 9660, "Except": 9661, "Elliott": 9662, "nationally": 9663, "goddess": 9664, "investors": 9665, "Burke": 9666, "Jackie": 9667, "##\u0101": 9668, "##RA": 9669, "Tristan": 9670, "Associate": 9671, "Tuesday": 9672, "scope": 9673, "Near": 9674, "bunch": 9675, "##abad": 9676, "##ben": 9677, "sunlight": 9678, "##aire": 9679, "manga": 9680, "Willie": 9681, "trucks": 9682, "boarding": 9683, "Lion": 9684, "lawsuit": 9685, "Learning": 9686, "Der": 9687, "pounding": 9688, "awful": 9689, "##mine": 9690, "IT": 9691, "Legend": 9692, "romance": 9693, "Serie": 9694, "AC": 9695, "gut": 9696, "precious": 9697, "Robertson": 9698, "hometown": 9699, "realm": 9700, "Guards": 9701, "Tag": 9702, "batting": 9703, "##vre": 9704, "halt": 9705, "conscious": 9706, "1838": 9707, "acquire": 9708, "collar": 9709, "##gg": 9710, "##ops": 9711, "Herald": 9712, "nationwide": 9713, "citizenship": 9714, "Aircraft": 9715, "decrease": 9716, "em": 9717, "Fiction": 9718, "Female": 9719, "corporation": 9720, "Located": 9721, "##ip": 9722, "fights": 9723, "unconscious": 9724, "Tampa": 9725, "Poetry": 9726, "lobby": 9727, "Malta": 9728, "##sar": 9729, "##bie": 9730, "layout": 9731, "Tate": 9732, "reader": 9733, "stained": 9734, "##bre": 9735, "##rst": 9736, "##ulate": 9737, "loudly": 9738, "Eva": 9739, "Cohen": 9740, "exploded": 9741, "Merit": 9742, "Maya": 9743, "##rable": 9744, "Rovers": 9745, "##IC": 9746, "Morrison": 9747, "Should": 9748, "vinyl": 9749, "##mie": 9750, "onwards": 9751, "##gie": 9752, "vicinity": 9753, "Wildlife": 9754, "probability": 9755, "Mar": 9756, "Barnes": 9757, "##ook": 9758, "spinning": 9759, "Moses": 9760, "##vie": 9761, "Surrey": 9762, "Planning": 9763, "conferences": 9764, "protective": 9765, "Plaza": 9766, "deny": 9767, "Canterbury": 9768, "manor": 9769, "Estate": 9770, "tilted": 9771, "comics": 9772, "IBM": 9773, "destroying": 9774, "server": 9775, "Dorothy": 9776, "##horn": 9777, "Oslo": 9778, "lesser": 9779, "heaven": 9780, "Marshal": 9781, "scales": 9782, "strikes": 9783, "##ath": 9784, "firms": 9785, "attract": 9786, "##BS": 9787, "controlling": 9788, "Bradford": 9789, "southeastern": 9790, "Amazon": 9791, "Travis": 9792, "Janet": 9793, "governed": 9794, "1842": 9795, "Train": 9796, "Holden": 9797, "bleeding": 9798, "gifts": 9799, "rent": 9800, "1839": 9801, "palms": 9802, "##\u016b": 9803, "judicial": 9804, "Ho": 9805, "Finals": 9806, "conflicts": 9807, "unlikely": 9808, "draws": 9809, "##cies": 9810, "compensation": 9811, "adds": 9812, "elderly": 9813, "Anton": 9814, "lasting": 9815, "Nintendo": 9816, "codes": 9817, "ministers": 9818, "pot": 9819, "associations": 9820, "capabilities": 9821, "##cht": 9822, "libraries": 9823, "##sie": 9824, "chances": 9825, "performers": 9826, "runway": 9827, "##af": 9828, "##nder": 9829, "Mid": 9830, "Vocals": 9831, "##uch": 9832, "##eon": 9833, "interpreted": 9834, "priority": 9835, "Uganda": 9836, "ruined": 9837, "Mathematics": 9838, "cook": 9839, "AFL": 9840, "Lutheran": 9841, "AIDS": 9842, "Capitol": 9843, "chase": 9844, "axis": 9845, "Moreover": 9846, "Mar\u00eda": 9847, "Saxon": 9848, "storyline": 9849, "##ffed": 9850, "Tears": 9851, "Kid": 9852, "cent": 9853, "colours": 9854, "Sex": 9855, "##long": 9856, "pm": 9857, "blonde": 9858, "Edwin": 9859, "CE": 9860, "diocese": 9861, "##ents": 9862, "##boy": 9863, "Inn": 9864, "##ller": 9865, "Saskatchewan": 9866, "##kh": 9867, "stepping": 9868, "Windsor": 9869, "##oka": 9870, "##eri": 9871, "Xavier": 9872, "Resources": 9873, "1843": 9874, "##top": 9875, "##rad": 9876, "##lls": 9877, "Testament": 9878, "poorly": 9879, "1836": 9880, "drifted": 9881, "slope": 9882, "CIA": 9883, "remix": 9884, "Lords": 9885, "mature": 9886, "hosting": 9887, "diamond": 9888, "beds": 9889, "##ncies": 9890, "luxury": 9891, "trigger": 9892, "##lier": 9893, "preliminary": 9894, "hybrid": 9895, "journalists": 9896, "Enterprise": 9897, "proven": 9898, "expelled": 9899, "insects": 9900, "Beautiful": 9901, "lifestyle": 9902, "vanished": 9903, "##ake": 9904, "##ander": 9905, "matching": 9906, "surfaces": 9907, "Dominican": 9908, "Kids": 9909, "referendum": 9910, "Orlando": 9911, "Truth": 9912, "Sandy": 9913, "privacy": 9914, "Calgary": 9915, "Speaker": 9916, "sts": 9917, "Nobody": 9918, "shifting": 9919, "##gers": 9920, "Roll": 9921, "Armenia": 9922, "Hand": 9923, "##ES": 9924, "106": 9925, "##ont": 9926, "Guild": 9927, "larvae": 9928, "Stock": 9929, "flame": 9930, "gravity": 9931, "enhanced": 9932, "Marion": 9933, "surely": 9934, "##tering": 9935, "Tales": 9936, "algorithm": 9937, "Emmy": 9938, "darker": 9939, "VIII": 9940, "##lash": 9941, "hamlet": 9942, "deliberately": 9943, "occurring": 9944, "choices": 9945, "Gage": 9946, "fees": 9947, "settling": 9948, "ridiculous": 9949, "##ela": 9950, "Sons": 9951, "cop": 9952, "custody": 9953, "##ID": 9954, "proclaimed": 9955, "Cardinals": 9956, "##pm": 9957, "Metal": 9958, "Ana": 9959, "1835": 9960, "clue": 9961, "Cardiff": 9962, "riders": 9963, "observations": 9964, "MA": 9965, "sometime": 9966, "##och": 9967, "performer": 9968, "intact": 9969, "Points": 9970, "allegations": 9971, "rotation": 9972, "Tennis": 9973, "tenor": 9974, "Directors": 9975, "##ats": 9976, "Transit": 9977, "thigh": 9978, "Complex": 9979, "##works": 9980, "twentieth": 9981, "Factory": 9982, "doctrine": 9983, "Daddy": 9984, "##ished": 9985, "pretend": 9986, "Winston": 9987, "cigarette": 9988, "##IA": 9989, "specimens": 9990, "hydrogen": 9991, "smoking": 9992, "mathematical": 9993, "arguments": 9994, "openly": 9995, "developer": 9996, "##iro": 9997, "fists": 9998, "somebody": 9999, "##san": 10000, "Standing": 10001, "Caleb": 10002, "intelligent": 10003, "Stay": 10004, "Interior": 10005, "echoed": 10006, "Valentine": 10007, "varieties": 10008, "Brady": 10009, "cluster": 10010, "Ever": 10011, "voyage": 10012, "##of": 10013, "deposits": 10014, "ultimate": 10015, "Hayes": 10016, "horizontal": 10017, "proximity": 10018, "##\u00e1s": 10019, "estates": 10020, "exploration": 10021, "NATO": 10022, "Classical": 10023, "##most": 10024, "bills": 10025, "condemned": 10026, "1832": 10027, "hunger": 10028, "##ato": 10029, "planes": 10030, "deserve": 10031, "offense": 10032, "sequences": 10033, "rendered": 10034, "acceptance": 10035, "##ony": 10036, "manufacture": 10037, "Plymouth": 10038, "innovative": 10039, "predicted": 10040, "##RC": 10041, "Fantasy": 10042, "##une": 10043, "supporter": 10044, "absent": 10045, "Picture": 10046, "bassist": 10047, "rescued": 10048, "##MC": 10049, "Ahmed": 10050, "Monte": 10051, "##sts": 10052, "##rius": 10053, "insane": 10054, "novelist": 10055, "##\u00e9s": 10056, "agrees": 10057, "Antarctic": 10058, "Lancaster": 10059, "Hopkins": 10060, "calculated": 10061, "startled": 10062, "##star": 10063, "tribal": 10064, "Amendment": 10065, "##hoe": 10066, "invisible": 10067, "patron": 10068, "deer": 10069, "Walk": 10070, "tracking": 10071, "Lyon": 10072, "tickets": 10073, "##ED": 10074, "philosopher": 10075, "compounds": 10076, "chuckled": 10077, "##wi": 10078, "pound": 10079, "loyalty": 10080, "Academic": 10081, "petition": 10082, "refuses": 10083, "marking": 10084, "Mercury": 10085, "northeastern": 10086, "dimensions": 10087, "scandal": 10088, "Canyon": 10089, "patch": 10090, "publish": 10091, "##oning": 10092, "Peak": 10093, "minds": 10094, "##boro": 10095, "Presbyterian": 10096, "Hardy": 10097, "theoretical": 10098, "magnitude": 10099, "bombs": 10100, "cage": 10101, "##ders": 10102, "##kai": 10103, "measuring": 10104, "explaining": 10105, "avoiding": 10106, "touchdowns": 10107, "Card": 10108, "theology": 10109, "##ured": 10110, "Popular": 10111, "export": 10112, "suspicious": 10113, "Probably": 10114, "photograph": 10115, "Lou": 10116, "Parks": 10117, "Arms": 10118, "compact": 10119, "Apparently": 10120, "excess": 10121, "Banks": 10122, "lied": 10123, "stunned": 10124, "territorial": 10125, "Filipino": 10126, "spectrum": 10127, "learns": 10128, "wash": 10129, "imprisonment": 10130, "ugly": 10131, "##rose": 10132, "Albany": 10133, "Erik": 10134, "sends": 10135, "##hara": 10136, "##rid": 10137, "consumed": 10138, "##gling": 10139, "Belgrade": 10140, "Da": 10141, "opposing": 10142, "Magnus": 10143, "footsteps": 10144, "glowing": 10145, "delicate": 10146, "Alexandria": 10147, "Ludwig": 10148, "gorgeous": 10149, "Bros": 10150, "Index": 10151, "##PA": 10152, "customs": 10153, "preservation": 10154, "bonds": 10155, "##mond": 10156, "environments": 10157, "##nto": 10158, "instructed": 10159, "parted": 10160, "adoption": 10161, "locality": 10162, "workshops": 10163, "goalkeeper": 10164, "##rik": 10165, "##uma": 10166, "Brighton": 10167, "Slovenia": 10168, "##ulating": 10169, "##tical": 10170, "towel": 10171, "hugged": 10172, "stripped": 10173, "Bears": 10174, "upright": 10175, "Wagner": 10176, "##aux": 10177, "secretly": 10178, "Adventures": 10179, "nest": 10180, "Course": 10181, "Lauren": 10182, "Boeing": 10183, "Abdul": 10184, "Lakes": 10185, "450": 10186, "##cu": 10187, "USSR": 10188, "caps": 10189, "Chan": 10190, "##nna": 10191, "conceived": 10192, "Actually": 10193, "Belfast": 10194, "Lithuanian": 10195, "concentrate": 10196, "possess": 10197, "militia": 10198, "pine": 10199, "protagonist": 10200, "Helena": 10201, "##PS": 10202, "##band": 10203, "Belle": 10204, "Clara": 10205, "Reform": 10206, "currency": 10207, "pregnancy": 10208, "1500": 10209, "##rim": 10210, "Isabella": 10211, "hull": 10212, "Name": 10213, "trend": 10214, "journalism": 10215, "diet": 10216, "##mel": 10217, "Recording": 10218, "acclaimed": 10219, "Tang": 10220, "Jace": 10221, "steering": 10222, "vacant": 10223, "suggestion": 10224, "costume": 10225, "laser": 10226, "##\u0161": 10227, "##ink": 10228, "##pan": 10229, "##vi\u0107": 10230, "integral": 10231, "achievements": 10232, "wise": 10233, "classroom": 10234, "unions": 10235, "southwestern": 10236, "##uer": 10237, "Garcia": 10238, "toss": 10239, "Tara": 10240, "Large": 10241, "##tate": 10242, "evident": 10243, "responsibilities": 10244, "populated": 10245, "satisfaction": 10246, "##bia": 10247, "casual": 10248, "Ecuador": 10249, "##ght": 10250, "arose": 10251, "##ovi\u0107": 10252, "Cornwall": 10253, "embrace": 10254, "refuse": 10255, "Heavyweight": 10256, "XI": 10257, "Eden": 10258, "activists": 10259, "##uation": 10260, "biology": 10261, "##shan": 10262, "fraud": 10263, "Fuck": 10264, "matched": 10265, "legacy": 10266, "Rivers": 10267, "missionary": 10268, "extraordinary": 10269, "Didn": 10270, "holder": 10271, "wickets": 10272, "crucial": 10273, "Writers": 10274, "Hurricane": 10275, "Iceland": 10276, "gross": 10277, "trumpet": 10278, "accordance": 10279, "hurry": 10280, "flooded": 10281, "doctorate": 10282, "Albania": 10283, "##yi": 10284, "united": 10285, "deceased": 10286, "jealous": 10287, "grief": 10288, "flute": 10289, "portraits": 10290, "##\u0430": 10291, "pleasant": 10292, "Founded": 10293, "Face": 10294, "crowned": 10295, "Raja": 10296, "advisor": 10297, "Salem": 10298, "##ec": 10299, "Achievement": 10300, "admission": 10301, "freely": 10302, "minimal": 10303, "Sudan": 10304, "developers": 10305, "estimate": 10306, "disabled": 10307, "##lane": 10308, "downstairs": 10309, "Bruno": 10310, "##pus": 10311, "pinyin": 10312, "##ude": 10313, "lecture": 10314, "deadly": 10315, "underlying": 10316, "optical": 10317, "witnesses": 10318, "Combat": 10319, "Julius": 10320, "tapped": 10321, "variants": 10322, "##like": 10323, "Colonial": 10324, "Critics": 10325, "Similarly": 10326, "mouse": 10327, "voltage": 10328, "sculptor": 10329, "Concert": 10330, "salary": 10331, "Frances": 10332, "##ground": 10333, "hook": 10334, "premises": 10335, "Software": 10336, "instructor": 10337, "nominee": 10338, "##ited": 10339, "fog": 10340, "slopes": 10341, "##zu": 10342, "vegetation": 10343, "sail": 10344, "##rch": 10345, "Body": 10346, "Apart": 10347, "atop": 10348, "View": 10349, "utility": 10350, "ribs": 10351, "cab": 10352, "migration": 10353, "##wyn": 10354, "bounded": 10355, "2019": 10356, "pillow": 10357, "trails": 10358, "##ub": 10359, "Halifax": 10360, "shade": 10361, "Rush": 10362, "##lah": 10363, "##dian": 10364, "Notre": 10365, "interviewed": 10366, "Alexandra": 10367, "Springfield": 10368, "Indeed": 10369, "rubbing": 10370, "dozens": 10371, "amusement": 10372, "legally": 10373, "##lers": 10374, "Jill": 10375, "Cinema": 10376, "ignoring": 10377, "Choice": 10378, "##ures": 10379, "pockets": 10380, "##nell": 10381, "laying": 10382, "Blair": 10383, "tackles": 10384, "separately": 10385, "##teen": 10386, "Criminal": 10387, "performs": 10388, "theorem": 10389, "Communication": 10390, "suburbs": 10391, "##iel": 10392, "competitors": 10393, "rows": 10394, "##hai": 10395, "Manitoba": 10396, "Eleanor": 10397, "interactions": 10398, "nominations": 10399, "assassination": 10400, "##dis": 10401, "Edmonton": 10402, "diving": 10403, "##dine": 10404, "essay": 10405, "##tas": 10406, "AFC": 10407, "Edge": 10408, "directing": 10409, "imagination": 10410, "sunk": 10411, "implement": 10412, "Theodore": 10413, "trembling": 10414, "sealed": 10415, "##rock": 10416, "Nobel": 10417, "##ancy": 10418, "##dorf": 10419, "##chen": 10420, "genuine": 10421, "apartments": 10422, "Nicolas": 10423, "AA": 10424, "Bach": 10425, "Globe": 10426, "Store": 10427, "220": 10428, "##10": 10429, "Rochester": 10430, "##\u00f1o": 10431, "alert": 10432, "107": 10433, "Beck": 10434, "##nin": 10435, "Naples": 10436, "Basin": 10437, "Crawford": 10438, "fears": 10439, "Tracy": 10440, "##hen": 10441, "disk": 10442, "##pped": 10443, "seventeen": 10444, "Lead": 10445, "backup": 10446, "reconstruction": 10447, "##lines": 10448, "terrified": 10449, "sleeve": 10450, "nicknamed": 10451, "popped": 10452, "##making": 10453, "##ern": 10454, "Holiday": 10455, "Gospel": 10456, "ibn": 10457, "##ime": 10458, "convert": 10459, "divine": 10460, "resolved": 10461, "##quet": 10462, "ski": 10463, "realizing": 10464, "##RT": 10465, "Legislature": 10466, "reservoir": 10467, "Rain": 10468, "sinking": 10469, "rainfall": 10470, "elimination": 10471, "challenging": 10472, "tobacco": 10473, "##outs": 10474, "Given": 10475, "smallest": 10476, "Commercial": 10477, "pin": 10478, "rebel": 10479, "comedian": 10480, "exchanged": 10481, "airing": 10482, "dish": 10483, "Salvador": 10484, "promising": 10485, "##wl": 10486, "relax": 10487, "presenter": 10488, "toll": 10489, "aerial": 10490, "##eh": 10491, "Fletcher": 10492, "brass": 10493, "disappear": 10494, "zones": 10495, "adjusted": 10496, "contacts": 10497, "##lk": 10498, "sensed": 10499, "Walt": 10500, "mild": 10501, "toes": 10502, "flies": 10503, "shame": 10504, "considers": 10505, "wildlife": 10506, "Hanna": 10507, "Arsenal": 10508, "Ladies": 10509, "naming": 10510, "##ishing": 10511, "anxiety": 10512, "discussions": 10513, "cute": 10514, "undertaken": 10515, "Cash": 10516, "strain": 10517, "Wyoming": 10518, "dishes": 10519, "precise": 10520, "Angela": 10521, "##ided": 10522, "hostile": 10523, "twins": 10524, "115": 10525, "Built": 10526, "##pel": 10527, "Online": 10528, "tactics": 10529, "Newman": 10530, "##bourne": 10531, "unclear": 10532, "repairs": 10533, "embarrassed": 10534, "listing": 10535, "tugged": 10536, "Vale": 10537, "##gin": 10538, "Meredith": 10539, "bout": 10540, "##cle": 10541, "velocity": 10542, "tips": 10543, "froze": 10544, "evaluation": 10545, "demonstrate": 10546, "##card": 10547, "criticised": 10548, "Nash": 10549, "lineup": 10550, "Rao": 10551, "monks": 10552, "bacteria": 10553, "lease": 10554, "##lish": 10555, "frightened": 10556, "den": 10557, "revived": 10558, "finale": 10559, "##rance": 10560, "flee": 10561, "Letters": 10562, "decreased": 10563, "##oh": 10564, "Sounds": 10565, "wrap": 10566, "Sharon": 10567, "incidents": 10568, "renovated": 10569, "everybody": 10570, "stole": 10571, "Bath": 10572, "boxing": 10573, "1815": 10574, "withdraw": 10575, "backs": 10576, "interim": 10577, "react": 10578, "murders": 10579, "Rhodes": 10580, "Copa": 10581, "framed": 10582, "flown": 10583, "Estonia": 10584, "Heavy": 10585, "explored": 10586, "##rra": 10587, "##GA": 10588, "##ali": 10589, "Istanbul": 10590, "1834": 10591, "##rite": 10592, "##aging": 10593, "##ues": 10594, "Episcopal": 10595, "arc": 10596, "orientation": 10597, "Maxwell": 10598, "infected": 10599, "##rot": 10600, "BCE": 10601, "Brook": 10602, "grasp": 10603, "Roberto": 10604, "Excellence": 10605, "108": 10606, "withdrawal": 10607, "Marines": 10608, "rider": 10609, "Lo": 10610, "##sin": 10611, "##run": 10612, "Subsequently": 10613, "garrison": 10614, "hurricane": 10615, "facade": 10616, "Prussia": 10617, "crushed": 10618, "enterprise": 10619, "##mber": 10620, "Twitter": 10621, "Generation": 10622, "Physical": 10623, "Sugar": 10624, "editing": 10625, "communicate": 10626, "Ellie": 10627, "##hurst": 10628, "Ernst": 10629, "wagon": 10630, "promotional": 10631, "conquest": 10632, "Parliamentary": 10633, "courtyard": 10634, "lawyers": 10635, "Superman": 10636, "email": 10637, "Prussian": 10638, "lately": 10639, "lecturer": 10640, "Singer": 10641, "Majesty": 10642, "Paradise": 10643, "sooner": 10644, "Heath": 10645, "slot": 10646, "curves": 10647, "convoy": 10648, "##vian": 10649, "induced": 10650, "synonym": 10651, "breeze": 10652, "##plane": 10653, "##ox": 10654, "peered": 10655, "Coalition": 10656, "##hia": 10657, "odds": 10658, "##esh": 10659, "##lina": 10660, "Tomorrow": 10661, "Nadu": 10662, "##ico": 10663, "##rah": 10664, "damp": 10665, "autonomous": 10666, "console": 10667, "Victory": 10668, "counts": 10669, "Luxembourg": 10670, "intimate": 10671, "Archived": 10672, "Carroll": 10673, "spy": 10674, "Zero": 10675, "habit": 10676, "Always": 10677, "faction": 10678, "teenager": 10679, "Johnston": 10680, "chaos": 10681, "ruin": 10682, "commerce": 10683, "blog": 10684, "##shed": 10685, "##the": 10686, "reliable": 10687, "Word": 10688, "Yu": 10689, "Norton": 10690, "parade": 10691, "Catholics": 10692, "damned": 10693, "##iling": 10694, "surgeon": 10695, "##tia": 10696, "Allison": 10697, "Jonas": 10698, "remarked": 10699, "##\u00e8s": 10700, "idiot": 10701, "Making": 10702, "proposals": 10703, "Industries": 10704, "strategies": 10705, "artifacts": 10706, "batteries": 10707, "reward": 10708, "##vers": 10709, "Agricultural": 10710, "distinguish": 10711, "lengths": 10712, "Jeffrey": 10713, "Progressive": 10714, "kicking": 10715, "Patricia": 10716, "##gio": 10717, "ballot": 10718, "##ios": 10719, "skilled": 10720, "##gation": 10721, "Colt": 10722, "limestone": 10723, "##AS": 10724, "peninsula": 10725, "##itis": 10726, "LA": 10727, "hotels": 10728, "shapes": 10729, "Crime": 10730, "depicting": 10731, "northwestern": 10732, "HD": 10733, "silly": 10734, "Das": 10735, "##\u00b2": 10736, "##ws": 10737, "##ash": 10738, "##matic": 10739, "thermal": 10740, "Has": 10741, "forgive": 10742, "surrendered": 10743, "Palm": 10744, "Nacional": 10745, "drank": 10746, "haired": 10747, "Mercedes": 10748, "##foot": 10749, "loading": 10750, "Timothy": 10751, "##roll": 10752, "mechanisms": 10753, "traces": 10754, "digging": 10755, "discussing": 10756, "Natalie": 10757, "##zhou": 10758, "Forbes": 10759, "landmark": 10760, "Anyway": 10761, "Manor": 10762, "conspiracy": 10763, "gym": 10764, "knocking": 10765, "viewing": 10766, "Formation": 10767, "Pink": 10768, "Beauty": 10769, "limbs": 10770, "Phillip": 10771, "sponsor": 10772, "Joy": 10773, "granite": 10774, "Harbour": 10775, "##ero": 10776, "payments": 10777, "Ballet": 10778, "conviction": 10779, "##dam": 10780, "Hood": 10781, "estimates": 10782, "lacked": 10783, "Mad": 10784, "Jorge": 10785, "##wen": 10786, "refuge": 10787, "##LA": 10788, "invaded": 10789, "Kat": 10790, "suburban": 10791, "##fold": 10792, "investigated": 10793, "Ari": 10794, "complained": 10795, "creek": 10796, "Georges": 10797, "##uts": 10798, "powder": 10799, "accepting": 10800, "deserved": 10801, "carpet": 10802, "Thunder": 10803, "molecules": 10804, "Legal": 10805, "cliff": 10806, "strictly": 10807, "enrollment": 10808, "ranch": 10809, "##rg": 10810, "##mba": 10811, "proportion": 10812, "renovation": 10813, "crop": 10814, "grabbing": 10815, "##liga": 10816, "finest": 10817, "entries": 10818, "receptor": 10819, "helmet": 10820, "blown": 10821, "Listen": 10822, "flagship": 10823, "workshop": 10824, "resolve": 10825, "nails": 10826, "Shannon": 10827, "portal": 10828, "jointly": 10829, "shining": 10830, "Violet": 10831, "overwhelming": 10832, "upward": 10833, "Mick": 10834, "proceedings": 10835, "##dies": 10836, "##aring": 10837, "Laurence": 10838, "Churchill": 10839, "##rice": 10840, "commit": 10841, "170": 10842, "inclusion": 10843, "Examples": 10844, "##verse": 10845, "##rma": 10846, "fury": 10847, "paths": 10848, "##SC": 10849, "ankle": 10850, "nerves": 10851, "Chemistry": 10852, "rectangular": 10853, "sworn": 10854, "screenplay": 10855, "cake": 10856, "Mann": 10857, "Seoul": 10858, "Animal": 10859, "sizes": 10860, "Speed": 10861, "vol": 10862, "Population": 10863, "Southwest": 10864, "Hold": 10865, "continuously": 10866, "Qualified": 10867, "wishing": 10868, "Fighting": 10869, "Made": 10870, "disappointment": 10871, "Portsmouth": 10872, "Thirty": 10873, "##beck": 10874, "Ahmad": 10875, "teammate": 10876, "MLB": 10877, "graph": 10878, "Charleston": 10879, "realizes": 10880, "##dium": 10881, "exhibits": 10882, "preventing": 10883, "##int": 10884, "fever": 10885, "rivalry": 10886, "Male": 10887, "mentally": 10888, "dull": 10889, "##lor": 10890, "##rich": 10891, "consistently": 10892, "##igan": 10893, "Madame": 10894, "certificate": 10895, "suited": 10896, "Krishna": 10897, "accuracy": 10898, "Webb": 10899, "Budapest": 10900, "Rex": 10901, "1831": 10902, "Cornell": 10903, "OK": 10904, "surveillance": 10905, "##gated": 10906, "habitats": 10907, "Adventure": 10908, "Conrad": 10909, "Superior": 10910, "Gay": 10911, "sofa": 10912, "aka": 10913, "boot": 10914, "Statistics": 10915, "Jessie": 10916, "Liberation": 10917, "##lip": 10918, "##rier": 10919, "brands": 10920, "saint": 10921, "Heinrich": 10922, "Christine": 10923, "bath": 10924, "Rhine": 10925, "ballet": 10926, "Jin": 10927, "consensus": 10928, "chess": 10929, "Arctic": 10930, "stack": 10931, "furious": 10932, "cheap": 10933, "toy": 10934, "##yre": 10935, "##face": 10936, "##gging": 10937, "gastropod": 10938, "##nne": 10939, "Romans": 10940, "membrane": 10941, "answering": 10942, "25th": 10943, "architects": 10944, "sustainable": 10945, "##yne": 10946, "Hon": 10947, "1814": 10948, "Baldwin": 10949, "dome": 10950, "##awa": 10951, "##zen": 10952, "celebrity": 10953, "enclosed": 10954, "##uit": 10955, "##mmer": 10956, "Electronic": 10957, "locals": 10958, "##CE": 10959, "supervision": 10960, "mineral": 10961, "Chemical": 10962, "Slovakia": 10963, "alley": 10964, "hub": 10965, "##az": 10966, "heroes": 10967, "Creative": 10968, "##AM": 10969, "incredible": 10970, "politically": 10971, "ESPN": 10972, "yanked": 10973, "halls": 10974, "Aboriginal": 10975, "Greatest": 10976, "yield": 10977, "##20": 10978, "congressional": 10979, "robot": 10980, "Kiss": 10981, "welcomed": 10982, "MS": 10983, "speeds": 10984, "proceed": 10985, "Sherman": 10986, "eased": 10987, "Greene": 10988, "Walsh": 10989, "Geoffrey": 10990, "variables": 10991, "rocky": 10992, "##print": 10993, "acclaim": 10994, "Reverend": 10995, "Wonder": 10996, "tonnes": 10997, "recurring": 10998, "Dawson": 10999, "continent": 11000, "finite": 11001, "AP": 11002, "continental": 11003, "ID": 11004, "facilitate": 11005, "essays": 11006, "Rafael": 11007, "Neal": 11008, "1833": 11009, "ancestors": 11010, "##met": 11011, "##gic": 11012, "Especially": 11013, "teenage": 11014, "frustrated": 11015, "Jules": 11016, "cock": 11017, "expense": 11018, "##oli": 11019, "##old": 11020, "blocking": 11021, "Notable": 11022, "prohibited": 11023, "ca": 11024, "dock": 11025, "organize": 11026, "##wald": 11027, "Burma": 11028, "Gloria": 11029, "dimension": 11030, "aftermath": 11031, "choosing": 11032, "Mickey": 11033, "torpedo": 11034, "pub": 11035, "##used": 11036, "manuscripts": 11037, "laps": 11038, "Ulster": 11039, "staircase": 11040, "sphere": 11041, "Insurance": 11042, "Contest": 11043, "lens": 11044, "risks": 11045, "investigations": 11046, "ERA": 11047, "glare": 11048, "##play": 11049, "Graduate": 11050, "auction": 11051, "Chronicle": 11052, "##tric": 11053, "##50": 11054, "Coming": 11055, "seating": 11056, "Wade": 11057, "seeks": 11058, "inland": 11059, "Thames": 11060, "Rather": 11061, "butterfly": 11062, "contracted": 11063, "positioned": 11064, "consumers": 11065, "contestants": 11066, "fragments": 11067, "Yankees": 11068, "Santos": 11069, "administrator": 11070, "hypothesis": 11071, "retire": 11072, "Denis": 11073, "agreements": 11074, "Winnipeg": 11075, "##rill": 11076, "1820": 11077, "trophy": 11078, "crap": 11079, "shakes": 11080, "Jenkins": 11081, "##rium": 11082, "ya": 11083, "twist": 11084, "labels": 11085, "Maritime": 11086, "##lings": 11087, "##iv": 11088, "111": 11089, "##ensis": 11090, "Cairo": 11091, "Anything": 11092, "##fort": 11093, "opinions": 11094, "crowded": 11095, "##nian": 11096, "abandon": 11097, "##iff": 11098, "drained": 11099, "imported": 11100, "##rr": 11101, "tended": 11102, "##rain": 11103, "Going": 11104, "introducing": 11105, "sculptures": 11106, "bankruptcy": 11107, "danced": 11108, "demonstration": 11109, "stance": 11110, "settings": 11111, "gazed": 11112, "abstract": 11113, "pet": 11114, "Calvin": 11115, "stiff": 11116, "strongest": 11117, "wrestler": 11118, "##dre": 11119, "Republicans": 11120, "grace": 11121, "allocated": 11122, "cursed": 11123, "snail": 11124, "advancing": 11125, "Return": 11126, "errors": 11127, "Mall": 11128, "presenting": 11129, "eliminate": 11130, "Amateur": 11131, "Institution": 11132, "counting": 11133, "##wind": 11134, "warehouse": 11135, "##nde": 11136, "Ethiopia": 11137, "trailed": 11138, "hollow": 11139, "##press": 11140, "Literary": 11141, "capability": 11142, "nursing": 11143, "preceding": 11144, "lamp": 11145, "Thomson": 11146, "Morton": 11147, "##ctic": 11148, "Crew": 11149, "Close": 11150, "composers": 11151, "boom": 11152, "Clare": 11153, "missiles": 11154, "112": 11155, "hunter": 11156, "snap": 11157, "##oni": 11158, "##tail": 11159, "Us": 11160, "declaration": 11161, "##cock": 11162, "rally": 11163, "huh": 11164, "lion": 11165, "straightened": 11166, "Philippe": 11167, "Sutton": 11168, "alpha": 11169, "valued": 11170, "maker": 11171, "navigation": 11172, "detected": 11173, "favorable": 11174, "perception": 11175, "Charter": 11176, "##\u00f1a": 11177, "Ricky": 11178, "rebounds": 11179, "tunnels": 11180, "slapped": 11181, "Emergency": 11182, "supposedly": 11183, "##act": 11184, "deployment": 11185, "socialist": 11186, "tubes": 11187, "anybody": 11188, "corn": 11189, "##NA": 11190, "Seminary": 11191, "heating": 11192, "pump": 11193, "##AA": 11194, "achieving": 11195, "souls": 11196, "##ass": 11197, "Link": 11198, "##ele": 11199, "##smith": 11200, "greeted": 11201, "Bates": 11202, "Americas": 11203, "Elder": 11204, "cure": 11205, "contestant": 11206, "240": 11207, "fold": 11208, "Runner": 11209, "Uh": 11210, "licked": 11211, "Politics": 11212, "committees": 11213, "neighbors": 11214, "fairy": 11215, "Silva": 11216, "Leipzig": 11217, "tipped": 11218, "correctly": 11219, "exciting": 11220, "electronics": 11221, "foundations": 11222, "cottage": 11223, "governmental": 11224, "##hat": 11225, "allied": 11226, "claws": 11227, "presidency": 11228, "cruel": 11229, "Agreement": 11230, "slender": 11231, "accompanying": 11232, "precisely": 11233, "##pass": 11234, "driveway": 11235, "swim": 11236, "Stand": 11237, "crews": 11238, "##mission": 11239, "rely": 11240, "everyday": 11241, "Wings": 11242, "demo": 11243, "##hic": 11244, "recreational": 11245, "min": 11246, "nationality": 11247, "##duction": 11248, "Easter": 11249, "##hole": 11250, "canvas": 11251, "Kay": 11252, "Leicester": 11253, "talented": 11254, "Discovery": 11255, "shells": 11256, "##ech": 11257, "Kerry": 11258, "Ferguson": 11259, "Leave": 11260, "##place": 11261, "altogether": 11262, "adopt": 11263, "butt": 11264, "wolves": 11265, "##nsis": 11266, "##ania": 11267, "modest": 11268, "soprano": 11269, "Boris": 11270, "##ught": 11271, "electron": 11272, "depicts": 11273, "hid": 11274, "cruise": 11275, "differ": 11276, "treasure": 11277, "##nch": 11278, "Gun": 11279, "Mama": 11280, "Bengali": 11281, "trainer": 11282, "merchants": 11283, "innovation": 11284, "presumably": 11285, "Shirley": 11286, "bottles": 11287, "proceeds": 11288, "Fear": 11289, "invested": 11290, "Pirates": 11291, "particle": 11292, "Dominic": 11293, "blamed": 11294, "Fight": 11295, "Daisy": 11296, "##pper": 11297, "##graphic": 11298, "nods": 11299, "knight": 11300, "Doyle": 11301, "tales": 11302, "Carnegie": 11303, "Evil": 11304, "Inter": 11305, "Shore": 11306, "Nixon": 11307, "transform": 11308, "Savannah": 11309, "##gas": 11310, "Baltic": 11311, "stretching": 11312, "worlds": 11313, "protocol": 11314, "Percy": 11315, "Toby": 11316, "Heroes": 11317, "brave": 11318, "dancers": 11319, "##aria": 11320, "backwards": 11321, "responses": 11322, "Chi": 11323, "Gaelic": 11324, "Berry": 11325, "crush": 11326, "embarked": 11327, "promises": 11328, "Madonna": 11329, "researcher": 11330, "realised": 11331, "inaugurated": 11332, "Cherry": 11333, "Mikhail": 11334, "Nottingham": 11335, "reinforced": 11336, "subspecies": 11337, "rapper": 11338, "##kie": 11339, "Dreams": 11340, "Re": 11341, "Damon": 11342, "Minneapolis": 11343, "monsters": 11344, "suspicion": 11345, "Tel": 11346, "surroundings": 11347, "afterward": 11348, "complaints": 11349, "OF": 11350, "sectors": 11351, "Algeria": 11352, "lanes": 11353, "Sabha": 11354, "objectives": 11355, "Donna": 11356, "bothered": 11357, "distracted": 11358, "deciding": 11359, "##ives": 11360, "##CA": 11361, "##onia": 11362, "bishops": 11363, "Strange": 11364, "machinery": 11365, "Voiced": 11366, "synthesis": 11367, "reflects": 11368, "interference": 11369, "##TS": 11370, "##ury": 11371, "keen": 11372, "##ign": 11373, "frown": 11374, "freestyle": 11375, "ton": 11376, "Dixon": 11377, "Sacred": 11378, "Ruby": 11379, "Prison": 11380, "##i\u00f3n": 11381, "1825": 11382, "outfit": 11383, "##tain": 11384, "curiosity": 11385, "##ight": 11386, "frames": 11387, "steadily": 11388, "emigrated": 11389, "horizon": 11390, "##erly": 11391, "Doc": 11392, "philosophical": 11393, "Table": 11394, "UTC": 11395, "Marina": 11396, "##DA": 11397, "secular": 11398, "##eed": 11399, "Zimbabwe": 11400, "cops": 11401, "Mack": 11402, "sheriff": 11403, "Sanskrit": 11404, "Francesco": 11405, "catches": 11406, "questioning": 11407, "streaming": 11408, "Kill": 11409, "testimony": 11410, "hissed": 11411, "tackle": 11412, "countryside": 11413, "copyright": 11414, "##IP": 11415, "Buddhism": 11416, "##rator": 11417, "ladder": 11418, "##ON": 11419, "Past": 11420, "rookie": 11421, "depths": 11422, "##yama": 11423, "##ister": 11424, "##HS": 11425, "Samantha": 11426, "Dana": 11427, "Educational": 11428, "brows": 11429, "Hammond": 11430, "raids": 11431, "envelope": 11432, "##sco": 11433, "##hart": 11434, "##ulus": 11435, "epic": 11436, "detection": 11437, "Streets": 11438, "Potter": 11439, "statistical": 11440, "f\u00fcr": 11441, "ni": 11442, "accounting": 11443, "##pot": 11444, "employer": 11445, "Sidney": 11446, "Depression": 11447, "commands": 11448, "Tracks": 11449, "averaged": 11450, "lets": 11451, "Ram": 11452, "longtime": 11453, "suits": 11454, "branded": 11455, "chip": 11456, "Shield": 11457, "loans": 11458, "ought": 11459, "Said": 11460, "sip": 11461, "##rome": 11462, "requests": 11463, "Vernon": 11464, "bordered": 11465, "veterans": 11466, "##ament": 11467, "Marsh": 11468, "Herzegovina": 11469, "Pine": 11470, "##igo": 11471, "mills": 11472, "anticipation": 11473, "reconnaissance": 11474, "##ef": 11475, "expectations": 11476, "protested": 11477, "arrow": 11478, "guessed": 11479, "depot": 11480, "maternal": 11481, "weakness": 11482, "##ap": 11483, "projected": 11484, "pour": 11485, "Carmen": 11486, "provider": 11487, "newer": 11488, "remind": 11489, "freed": 11490, "##rily": 11491, "##wal": 11492, "##tones": 11493, "intentions": 11494, "Fiji": 11495, "timing": 11496, "Match": 11497, "managers": 11498, "Kosovo": 11499, "Herman": 11500, "Wesley": 11501, "Chang": 11502, "135": 11503, "semifinals": 11504, "shouting": 11505, "Indo": 11506, "Janeiro": 11507, "Chess": 11508, "Macedonia": 11509, "Buck": 11510, "##onies": 11511, "rulers": 11512, "Mail": 11513, "##vas": 11514, "##sel": 11515, "MHz": 11516, "Programme": 11517, "Task": 11518, "commercially": 11519, "subtle": 11520, "propaganda": 11521, "spelled": 11522, "bowling": 11523, "basically": 11524, "Raven": 11525, "1828": 11526, "Colony": 11527, "109": 11528, "##ingham": 11529, "##wara": 11530, "anticipated": 11531, "1829": 11532, "##iers": 11533, "graduates": 11534, "##rton": 11535, "##fication": 11536, "endangered": 11537, "ISO": 11538, "diagnosed": 11539, "##tage": 11540, "exercises": 11541, "Battery": 11542, "bolt": 11543, "poison": 11544, "cartoon": 11545, "##ci\u00f3n": 11546, "hood": 11547, "bowed": 11548, "heal": 11549, "Meyer": 11550, "Reagan": 11551, "##wed": 11552, "subfamily": 11553, "##gent": 11554, "momentum": 11555, "infant": 11556, "detect": 11557, "##sse": 11558, "Chapman": 11559, "Darwin": 11560, "mechanics": 11561, "NSW": 11562, "Cancer": 11563, "Brooke": 11564, "Nuclear": 11565, "comprised": 11566, "hire": 11567, "sanctuary": 11568, "wingspan": 11569, "contrary": 11570, "remembering": 11571, "surprising": 11572, "Basic": 11573, "stealing": 11574, "OS": 11575, "hatred": 11576, "##lled": 11577, "masters": 11578, "violation": 11579, "Rule": 11580, "##nger": 11581, "assuming": 11582, "conquered": 11583, "louder": 11584, "robe": 11585, "Beatles": 11586, "legitimate": 11587, "##vation": 11588, "massacre": 11589, "Rica": 11590, "unsuccessfully": 11591, "poets": 11592, "##enberg": 11593, "careers": 11594, "doubled": 11595, "premier": 11596, "battalions": 11597, "Dubai": 11598, "Paper": 11599, "Louisville": 11600, "gestured": 11601, "dressing": 11602, "successive": 11603, "mumbled": 11604, "Vic": 11605, "referee": 11606, "pupil": 11607, "##cated": 11608, "##rre": 11609, "ceremonies": 11610, "picks": 11611, "##IN": 11612, "diplomat": 11613, "alike": 11614, "geographical": 11615, "rays": 11616, "##HA": 11617, "##read": 11618, "harbour": 11619, "factories": 11620, "pastor": 11621, "playwright": 11622, "Ultimate": 11623, "nationalist": 11624, "uniforms": 11625, "obtaining": 11626, "kit": 11627, "Amber": 11628, "##pling": 11629, "screenwriter": 11630, "ancestry": 11631, "##cott": 11632, "Fields": 11633, "PR": 11634, "Coleman": 11635, "rat": 11636, "Bavaria": 11637, "squeeze": 11638, "highlighted": 11639, "Adult": 11640, "reflecting": 11641, "Mel": 11642, "1824": 11643, "bicycle": 11644, "organizing": 11645, "sided": 11646, "Previously": 11647, "Underground": 11648, "Prof": 11649, "athletics": 11650, "coupled": 11651, "mortal": 11652, "Hampton": 11653, "worthy": 11654, "immune": 11655, "Ava": 11656, "##gun": 11657, "encouraging": 11658, "simplified": 11659, "##ssa": 11660, "##nte": 11661, "##ann": 11662, "Providence": 11663, "entities": 11664, "Pablo": 11665, "Strong": 11666, "Housing": 11667, "##ista": 11668, "##ators": 11669, "kidnapped": 11670, "mosque": 11671, "Kirk": 11672, "whispers": 11673, "fruits": 11674, "shattered": 11675, "fossil": 11676, "Empress": 11677, "Johns": 11678, "Webster": 11679, "Thing": 11680, "refusing": 11681, "differently": 11682, "specimen": 11683, "Ha": 11684, "##EN": 11685, "##tina": 11686, "##elle": 11687, "##night": 11688, "Horn": 11689, "neighbourhood": 11690, "Bolivia": 11691, "##rth": 11692, "genres": 11693, "Pre": 11694, "##vich": 11695, "Amelia": 11696, "swallow": 11697, "Tribune": 11698, "Forever": 11699, "Psychology": 11700, "Use": 11701, "##bers": 11702, "Gazette": 11703, "ash": 11704, "##usa": 11705, "Monster": 11706, "##cular": 11707, "delegation": 11708, "blowing": 11709, "Oblast": 11710, "retreated": 11711, "automobile": 11712, "##ex": 11713, "profits": 11714, "shirts": 11715, "devil": 11716, "Treasury": 11717, "##backs": 11718, "Drums": 11719, "Ronnie": 11720, "gameplay": 11721, "expertise": 11722, "Evening": 11723, "resides": 11724, "Caesar": 11725, "unity": 11726, "Crazy": 11727, "linking": 11728, "Vision": 11729, "donations": 11730, "Isabel": 11731, "valve": 11732, "Sue": 11733, "WWE": 11734, "logical": 11735, "availability": 11736, "fitting": 11737, "revolt": 11738, "##mill": 11739, "Linux": 11740, "taxi": 11741, "Access": 11742, "pollution": 11743, "statues": 11744, "Augustus": 11745, "##pen": 11746, "cello": 11747, "##some": 11748, "lacking": 11749, "##ati": 11750, "Gwen": 11751, "##aka": 11752, "##ovich": 11753, "1821": 11754, "Wow": 11755, "initiatives": 11756, "Uruguay": 11757, "Cain": 11758, "stroked": 11759, "examine": 11760, "##\u012b": 11761, "mentor": 11762, "moist": 11763, "disorders": 11764, "buttons": 11765, "##tica": 11766, "##anna": 11767, "Species": 11768, "Lynch": 11769, "museums": 11770, "scorer": 11771, "Poor": 11772, "eligibility": 11773, "op": 11774, "unveiled": 11775, "cats": 11776, "Title": 11777, "wheat": 11778, "critically": 11779, "Syracuse": 11780, "##osis": 11781, "marketed": 11782, "enhance": 11783, "Ryder": 11784, "##NG": 11785, "##ull": 11786, "##rna": 11787, "embedded": 11788, "throws": 11789, "foods": 11790, "happily": 11791, "##ami": 11792, "lesson": 11793, "formats": 11794, "punched": 11795, "##rno": 11796, "expressions": 11797, "qualities": 11798, "##sal": 11799, "Gods": 11800, "##lity": 11801, "elect": 11802, "wives": 11803, "##lling": 11804, "jungle": 11805, "Toyota": 11806, "reversed": 11807, "Grammar": 11808, "Cloud": 11809, "Agnes": 11810, "##ules": 11811, "disputed": 11812, "verses": 11813, "Lucien": 11814, "threshold": 11815, "##rea": 11816, "scanned": 11817, "##bled": 11818, "##dley": 11819, "##lice": 11820, "Kazakhstan": 11821, "Gardner": 11822, "Freeman": 11823, "##rz": 11824, "inspection": 11825, "Rita": 11826, "accommodation": 11827, "advances": 11828, "chill": 11829, "Elliot": 11830, "thriller": 11831, "Constantinople": 11832, "##mos": 11833, "debris": 11834, "whoever": 11835, "1810": 11836, "Santo": 11837, "Carey": 11838, "remnants": 11839, "Guatemala": 11840, "##irs": 11841, "carriers": 11842, "equations": 11843, "mandatory": 11844, "##WA": 11845, "anxious": 11846, "measurement": 11847, "Summit": 11848, "Terminal": 11849, "Erin": 11850, "##zes": 11851, "LLC": 11852, "##uo": 11853, "glancing": 11854, "sin": 11855, "##\u2083": 11856, "Downtown": 11857, "flowering": 11858, "Euro": 11859, "Leigh": 11860, "Lance": 11861, "warn": 11862, "decent": 11863, "recommendations": 11864, "##ote": 11865, "Quartet": 11866, "##rrell": 11867, "Clarence": 11868, "colleague": 11869, "guarantee": 11870, "230": 11871, "Clayton": 11872, "Beast": 11873, "addresses": 11874, "prospect": 11875, "destroyer": 11876, "vegetables": 11877, "Leadership": 11878, "fatal": 11879, "prints": 11880, "190": 11881, "##makers": 11882, "Hyde": 11883, "persuaded": 11884, "illustrations": 11885, "Southampton": 11886, "Joyce": 11887, "beats": 11888, "editors": 11889, "mount": 11890, "##grave": 11891, "Malaysian": 11892, "Bombay": 11893, "endorsed": 11894, "##sian": 11895, "##bee": 11896, "applying": 11897, "Religion": 11898, "nautical": 11899, "bomber": 11900, "Na": 11901, "airfield": 11902, "gravel": 11903, "##rew": 11904, "Cave": 11905, "bye": 11906, "dig": 11907, "decree": 11908, "burden": 11909, "Election": 11910, "Hawk": 11911, "Fe": 11912, "##iled": 11913, "reunited": 11914, "##tland": 11915, "liver": 11916, "Teams": 11917, "Put": 11918, "delegates": 11919, "Ella": 11920, "##fect": 11921, "Cal": 11922, "invention": 11923, "Castro": 11924, "bored": 11925, "##kawa": 11926, "##ail": 11927, "Trinidad": 11928, "NASCAR": 11929, "pond": 11930, "develops": 11931, "##pton": 11932, "expenses": 11933, "Zoe": 11934, "Released": 11935, "##rf": 11936, "organs": 11937, "beta": 11938, "parameters": 11939, "Neill": 11940, "##lene": 11941, "lateral": 11942, "Beat": 11943, "blades": 11944, "Either": 11945, "##hale": 11946, "Mitch": 11947, "##ET": 11948, "##vous": 11949, "Rod": 11950, "burnt": 11951, "phones": 11952, "Rising": 11953, "##front": 11954, "investigating": 11955, "##dent": 11956, "Stephanie": 11957, "##keeper": 11958, "screening": 11959, "##uro": 11960, "Swan": 11961, "Sinclair": 11962, "modes": 11963, "bullets": 11964, "Nigerian": 11965, "melody": 11966, "##ques": 11967, "Rifle": 11968, "##12": 11969, "128": 11970, "##jin": 11971, "charm": 11972, "Venus": 11973, "##tian": 11974, "fusion": 11975, "advocated": 11976, "visitor": 11977, "pinned": 11978, "genera": 11979, "3000": 11980, "Ferry": 11981, "Solo": 11982, "quantity": 11983, "regained": 11984, "platinum": 11985, "shoots": 11986, "narrowly": 11987, "preceded": 11988, "update": 11989, "##ichi": 11990, "equality": 11991, "unaware": 11992, "regiments": 11993, "ally": 11994, "##tos": 11995, "transmitter": 11996, "locks": 11997, "Seeing": 11998, "outlets": 11999, "feast": 12000, "reopened": 12001, "##ows": 12002, "struggles": 12003, "Buddy": 12004, "1826": 12005, "bark": 12006, "elegant": 12007, "amused": 12008, "Pretty": 12009, "themed": 12010, "schemes": 12011, "Lisbon": 12012, "Te": 12013, "patted": 12014, "terrorism": 12015, "Mystery": 12016, "##croft": 12017, "##imo": 12018, "Madagascar": 12019, "Journey": 12020, "dealer": 12021, "contacted": 12022, "##quez": 12023, "ITV": 12024, "vacation": 12025, "Wong": 12026, "Sacramento": 12027, "organisms": 12028, "##pts": 12029, "balcony": 12030, "coloured": 12031, "sheer": 12032, "defines": 12033, "MC": 12034, "abortion": 12035, "forbidden": 12036, "accredited": 12037, "Newfoundland": 12038, "tendency": 12039, "entrepreneur": 12040, "Benny": 12041, "Tanzania": 12042, "needing": 12043, "finalist": 12044, "mythology": 12045, "weakened": 12046, "gown": 12047, "sentences": 12048, "Guest": 12049, "websites": 12050, "Tibetan": 12051, "UFC": 12052, "voluntary": 12053, "annoyed": 12054, "Welcome": 12055, "honestly": 12056, "correspondence": 12057, "geometry": 12058, "Deutsche": 12059, "Biology": 12060, "Help": 12061, "##aya": 12062, "Lines": 12063, "Hector": 12064, "##ael": 12065, "reluctant": 12066, "##ages": 12067, "wears": 12068, "inquiry": 12069, "##dell": 12070, "Holocaust": 12071, "Tourism": 12072, "Wei": 12073, "volcanic": 12074, "##mates": 12075, "Visual": 12076, "sorts": 12077, "neighborhoods": 12078, "Running": 12079, "apple": 12080, "shy": 12081, "Laws": 12082, "bend": 12083, "Northeast": 12084, "feminist": 12085, "Speedway": 12086, "Murder": 12087, "visa": 12088, "stuffed": 12089, "fangs": 12090, "transmitted": 12091, "fiscal": 12092, "Ain": 12093, "enlarged": 12094, "##ndi": 12095, "Cecil": 12096, "Peterson": 12097, "Benson": 12098, "Bedford": 12099, "acceptable": 12100, "##CC": 12101, "##wer": 12102, "purely": 12103, "triangle": 12104, "foster": 12105, "Alberto": 12106, "educator": 12107, "Highland": 12108, "acute": 12109, "LGBT": 12110, "Tina": 12111, "Mi": 12112, "adventures": 12113, "Davidson": 12114, "Honda": 12115, "translator": 12116, "monk": 12117, "enacted": 12118, "summoned": 12119, "##ional": 12120, "collector": 12121, "Genesis": 12122, "Un": 12123, "liner": 12124, "Di": 12125, "Statistical": 12126, "##CS": 12127, "filter": 12128, "Knox": 12129, "Religious": 12130, "Stella": 12131, "Estonian": 12132, "Turn": 12133, "##ots": 12134, "primitive": 12135, "parishes": 12136, "##lles": 12137, "complexity": 12138, "autobiography": 12139, "rigid": 12140, "cannon": 12141, "pursuing": 12142, "exploring": 12143, "##gram": 12144, "##mme": 12145, "freshman": 12146, "caves": 12147, "Expedition": 12148, "Traditional": 12149, "iTunes": 12150, "certification": 12151, "cooling": 12152, "##ort": 12153, "##gna": 12154, "##IT": 12155, "##lman": 12156, "##VA": 12157, "Motion": 12158, "explosive": 12159, "licence": 12160, "boxer": 12161, "shrine": 12162, "loosely": 12163, "Brigadier": 12164, "Savage": 12165, "Brett": 12166, "MVP": 12167, "heavier": 12168, "##elli": 12169, "##gged": 12170, "Buddha": 12171, "Easy": 12172, "spells": 12173, "fails": 12174, "incredibly": 12175, "Georg": 12176, "stern": 12177, "compatible": 12178, "Perfect": 12179, "applies": 12180, "cognitive": 12181, "excessive": 12182, "nightmare": 12183, "neighbor": 12184, "Sicily": 12185, "appealed": 12186, "static": 12187, "##\u2081": 12188, "Aberdeen": 12189, "##leigh": 12190, "slipping": 12191, "bride": 12192, "##guard": 12193, "Um": 12194, "Clyde": 12195, "1818": 12196, "##gible": 12197, "Hal": 12198, "Frost": 12199, "Sanders": 12200, "interactive": 12201, "Hour": 12202, "##vor": 12203, "hurting": 12204, "bull": 12205, "termed": 12206, "shelf": 12207, "capturing": 12208, "##pace": 12209, "rolls": 12210, "113": 12211, "##bor": 12212, "Chilean": 12213, "teaches": 12214, "##rey": 12215, "exam": 12216, "shipped": 12217, "Twin": 12218, "borrowed": 12219, "##lift": 12220, "Shit": 12221, "##hot": 12222, "Lindsay": 12223, "Below": 12224, "Kiev": 12225, "Lin": 12226, "leased": 12227, "##sto": 12228, "Eli": 12229, "Diane": 12230, "Val": 12231, "subtropical": 12232, "shoe": 12233, "Bolton": 12234, "Dragons": 12235, "##rification": 12236, "Vatican": 12237, "##pathy": 12238, "Crisis": 12239, "dramatically": 12240, "talents": 12241, "babies": 12242, "##ores": 12243, "surname": 12244, "##AP": 12245,
[...]
